<s>	0
</s>	0
<pad>	0
<unk>	0
,	-2.67979
▁que	-3.57297
▁de	-3.65695
▁y	-3.75706
s	-3.86532
.	-3.93572
▁a	-3.96714
▁la	-4.2305
▁en	-4.49151
▁el	-4.52037
▁no	-4.72663
;	-4.73954
▁the	-4.75181
▁to	-4.90583
▁se	-4.98141
▁—	-4.99274
▁of	-5.06162
▁los	-5.06649
▁con	-5.09235
▁and	-5.09348
▁	-5.11359
▁por	-5.27016
▁le	-5.30959
▁su	-5.31006
▁lo	-5.32954
▁las	-5.43599
n	-5.43643
▁me	-5.50889
▁“	-5.50932
▁in	-5.59858
▁don	-5.62414
▁del	-5.67933
:	-5.70379
▁her	-5.70743
▁es	-5.74716
r	-5.7891
▁was	-5.80396
▁como	-5.80536
▁Quijote	-5.80702
▁I	-5.80797
▁Sancho	-5.83654
▁un	-5.85461
▁más	-5.89585
▁al	-5.93928
▁si	-5.95587
▁she	-5.96648
▁it	-5.97262
a	-5.98449
▁mi	-6.00232
▁yo	-6.00714
d	-6.00995
▁that	-6.02048
▁he	-6.02761
▁not	-6.07987
e	-6.10085
▁be	-6.11226
▁you	-6.12125
t	-6.15827
ed	-6.17966
▁o	-6.21603
▁para	-6.2173
’	-6.22249
se	-6.26359
▁ni	-6.28561
▁with	-6.28656
ing	-6.29653
▁una	-6.29927
o	-6.3164
▁had	-6.31897
▁for	-6.32297
▁porque	-6.33289
▁his	-6.35007
▁as	-6.36171
▁él	-6.38635
▁ha	-6.39476
▁tan	-6.39847
?	-6.42677
!	-6.43764
▁sin	-6.44394
.”	-6.4661
do	-6.4671
▁Mr	-6.4858
le	-6.49004
▁ser	-6.51581
▁todo	-6.51623
▁at	-6.51642
▁is	-6.54927
▁había	-6.56747
▁Y	-6.59044
—,	-6.6208
▁sus	-6.62396
▁bien	-6.62612
▁have	-6.65048
▁señor	-6.65249
me	-6.65654
es	-6.6664
▁¿	-6.67714
▁on	-6.70371
▁dijo	-6.70779
▁así	-6.71249
▁merced	-6.71609
▁so	-6.72862
▁esto	-6.73339
te	-6.73528
dijo	-6.73616
ly	-6.75526
▁said	-6.76173
▁all	-6.76309
▁te	-6.76875
I	-6.79368
▁vuestra	-6.79858
ó	-6.79947
ar	-6.801
,”	-6.80214
l	-6.80845
respondió	-6.82072
▁him	-6.82795
▁by	-6.82801
u	-6.84492
▁but	-6.84899
_	-6.86153
▁todos	-6.87041
▁pero	-6.88955
la	-6.89838
▁era	-6.90298
b	-6.94613
▁cuando	-6.95334
▁cual	-6.95909
g	-6.9705
▁sino	-6.98158
c	-6.99247
y	-6.99389
▁_	-6.99739
▁ya	-7.00559
▁fue	-7.02322
▁dos	-7.02454
▁esta	-7.02738
-	-7.03206
▁A	-7.0341
é	-7.04498
▁were	-7.04643
▁¡	-7.04781
▁my	-7.05099
▁Elizabeth	-7.05232
▁or	-7.05793
▁pues	-7.0606
▁decir	-7.07464
▁este	-7.07554
▁donde	-7.08147
—	-7.08775
▁which	-7.09207
▁this	-7.09371
da	-7.09558
▁quien	-7.09689
▁very	-7.1043
▁could	-7.1132
en	-7.1149
▁they	-7.12128
▁caballero	-7.12767
os	-7.13043
▁hacer	-7.14809
▁ella	-7.15719
er	-7.17046
▁been	-7.17158
▁qué	-7.17263
▁from	-7.17977
re	-7.1841
ba	-7.1935
▁son	-7.19403
▁would	-7.1941
▁mal	-7.20331
▁do	-7.22015
▁muy	-7.24742
ra	-7.25257
▁aunque	-7.25695
▁them	-7.26137
▁otra	-7.2615
▁mí	-7.26632
m	-7.27678
▁Dios	-7.27702
▁otro	-7.27927
▁señora	-7.28059
▁No	-7.28103
▁what	-7.29793
▁ver	-7.31186
p	-7.32152
lo	-7.33289
ado	-7.33572
i	-7.33898
▁aquel	-7.34021
▁your	-7.34507
▁sobre	-7.35078
▁os	-7.35264
▁re	-7.35432
▁está	-7.3664
▁an	-7.3687
▁their	-7.37197
ía	-7.37341
as	-7.37344
▁are	-7.37573
▁estaba	-7.37719
▁aquí	-7.38044
▁hay	-7.38641
▁cosa	-7.38822
▁will	-7.39157
▁tal	-7.40568
▁The	-7.41106
▁buen	-7.41882
on	-7.42462
ndo	-7.42998
▁entre	-7.43277
▁verdad	-7.4495
▁dar	-7.4559
▁such	-7.45869
▁Darcy	-7.45895
▁tanto	-7.46816
mos	-7.46878
▁any	-7.47174
ta	-7.4888
to	-7.50051
?”	-7.50512
▁allí	-7.51033
de	-7.51402
▁am	-7.52204
▁more	-7.52419
▁mundo	-7.53163
▁tengo	-7.53426
▁casa	-7.53624
▁has	-7.53647
í	-7.54056
▁Alice	-7.54172
▁tiene	-7.54215
▁when	-7.54431
an	-7.54906
▁alguna	-7.5491
▁much	-7.55115
á	-7.55903
▁sé	-7.55974
▁must	-7.56746
ce	-7.56881
▁dicho	-7.56953
▁parte	-7.57517
▁poco	-7.57566
▁mis	-7.57716
▁tu	-7.58125
▁hasta	-7.58934
▁can	-7.59778
▁one	-7.59901
▁vida	-7.6051
▁buena	-7.60842
!”	-7.61888
▁cura	-7.63705
▁there	-7.64242
▁gran	-7.64942
▁Panza	-7.65137
▁tenía	-7.65287
v	-7.65329
▁luego	-7.6542
▁han	-7.65514
▁cosas	-7.6556
▁todas	-7.66173
▁De	-7.66675
▁menos	-7.66777
▁Bennet	-7.66848
▁know	-7.67384
▁lugar	-7.67873
▁uno	-7.68231
▁who	-7.68464
▁En	-7.69662
▁if	-7.69667
▁manera	-7.69777
▁She	-7.69825
▁C	-7.69852
ca	-7.70192
▁aquella	-7.70837
▁tiempo	-7.71002
mente	-7.71744
▁than	-7.71931
▁puesto	-7.71971
▁did	-7.72005
ro	-7.73053
▁soy	-7.74565
▁dio	-7.74897
▁toda	-7.74971
▁mano	-7.75496
▁herself	-7.75562
ada	-7.7574
▁nos	-7.7575
▁little	-7.76826
f	-7.76832
▁other	-7.77019
▁Bingley	-7.77464
co	-7.7819
▁ahora	-7.78429
▁Miss	-7.78456
al	-7.78919
▁amo	-7.79622
▁fin	-7.81036
▁mejor	-7.81249
▁Jane	-7.81713
ja	-7.81728
--	-7.81997
▁should	-7.82048
ga	-7.82193
▁haber	-7.8226
▁visto	-7.83061
▁mucho	-7.83964
▁time	-7.84535
▁puede	-7.8468
▁fuera	-7.85218
aba	-7.85611
▁sea	-7.85615
▁man	-7.85664
is	-7.85739
▁sí	-7.86517
▁les	-7.86695
▁Dulcinea	-7.86854
▁ellos	-7.86991
▁ojos	-7.87019
▁tierra	-7.87203
▁But	-7.87364
▁antes	-7.88095
▁algún	-7.88267
▁día	-7.8873
▁caballeros	-7.89089
▁tener	-7.89753
ci	-7.89774
▁cielo	-7.90066
▁think	-7.90607
▁otras	-7.91075
▁before	-7.91898
▁out	-7.91946
▁otros	-7.92112
▁some	-7.92368
▁historia	-7.926
▁hombre	-7.93963
▁never	-7.9452
▁only	-7.94548
▁padre	-7.94736
▁again	-7.94865
▁we	-7.95019
▁saber	-7.95178
▁hecho	-7.95211
▁eso	-7.96616
▁vio	-7.96971
ando	-7.97044
das	-7.97517
▁El	-7.97711
▁may	-7.97997
▁He	-7.98078
▁amigo	-7.98696
▁say	-7.98998
▁camino	-7.99506
▁escudero	-7.99507
▁quiero	-7.99582
it	-7.99803
▁digo	-7.99994
▁Pero	-8.00008
▁aun	-8.00102
▁most	-8.00765
ma	-8.00825
▁mesmo	-8.00872
na	-8.01036
no	-8.01432
▁respondió	-8.01543
ir	-8.01769
▁habían	-8.01798
▁parece	-8.02034
▁tú	-8.02832
▁now	-8.03002
ron	-8.03044
▁go	-8.0317
▁Project	-8.04945
▁manos	-8.05402
▁soon	-8.05484
▁about	-8.05852
▁hizo	-8.06183
▁va	-8.06234
A	-8.06435
▁sister	-8.06683
▁cuenta	-8.07029
▁might	-8.07035
▁up	-8.07037
▁It	-8.07155
▁mujer	-8.07334
▁días	-8.07366
▁muchas	-8.07485
dos	-8.07524
st	-8.07582
▁tres	-8.07919
z	-8.08216
▁well	-8.08401
▁desta	-8.08655
▁punto	-8.0921
sa	-8.09274
que	-8.09759
in	-8.10037
▁cabeza	-8.10096
▁make	-8.10538
▁noche	-8.10708
▁though	-8.10804
▁cuanto	-8.11159
▁será	-8.11172
il	-8.11387
▁caballo	-8.12342
▁Pues	-8.1237
ll	-8.12634
▁dice	-8.13068
▁good	-8.13221
so	-8.13226
▁without	-8.13266
▁P	-8.13691
▁see	-8.1381
▁debe	-8.14001
▁estas	-8.14087
▁parecer	-8.14153
▁pie	-8.14636
▁co	-8.14741
▁own	-8.15015
▁how	-8.15125
▁cada	-8.15166
▁mil	-8.16663
▁into	-8.17222
▁vuesa	-8.17931
replicó	-8.18413
▁Don	-8.18626
▁grande	-8.18831
▁gusto	-8.1887
▁veces	-8.18895
▁nuestro	-8.19256
▁cómo	-8.19493
and	-8.19551
go	-8.19587
pe	-8.19741
]	-8.19868
▁after	-8.19868
”	-8.19904
▁then	-8.19911
▁primero	-8.19982
▁Rocinante	-8.20358
▁duque	-8.2073
▁[	-8.2085
▁first	-8.21346
▁razones	-8.21346
▁fuese	-8.21563
▁andante	-8.21864
▁duda	-8.2189
▁thought	-8.21995
mo	-8.22038
▁nothing	-8.22344
Oh	-8.22747
▁dejar	-8.23164
▁vos	-8.23181
▁diciendo	-8.23351
▁Yo	-8.23367
▁podía	-8.23428
—;	-8.23585
▁también	-8.23858
▁being	-8.23879
or	-8.24246
▁Si	-8.24611
▁Collins	-8.24881
▁Wickham	-8.24895
▁hace	-8.25171
▁every	-8.25471
▁mío	-8.2642
▁(	-8.26459
▁duquesa	-8.26528
za	-8.26621
▁mismo	-8.2692
▁muchos	-8.27157
ur	-8.27335
▁vez	-8.27502
▁great	-8.27805
▁»	-8.29039
▁like	-8.29297
▁down	-8.29619
▁shall	-8.2962
▁eran	-8.29749
ió	-8.29862
▁Con	-8.29952
los	-8.30144
▁ir	-8.30158
▁después	-8.30159
▁nombre	-8.30385
▁come	-8.30917
▁mucha	-8.3133
▁way	-8.31845
ch	-8.31961
▁vi	-8.32094
▁estar	-8.32195
ness	-8.32258
▁Mancha	-8.32351
▁modo	-8.32908
▁voz	-8.33471
ve	-8.33823
▁estos	-8.34137
▁decía	-8.34215
ido	-8.3425
▁quién	-8.35326
E	-8.35699
▁sólo	-8.35732
ig	-8.35925
ida	-8.36067
▁us	-8.36211
▁Lydia	-8.36307
▁gobernador	-8.36763
▁barbero	-8.36885
▁work	-8.37167
▁alma	-8.37262
▁La	-8.37363
▁nada	-8.37472
▁hija	-8.37484
▁estaban	-8.37542
▁made	-8.37576
▁aventura	-8.37735
▁desde	-8.38178
▁adelante	-8.38639
▁dear	-8.38838
ón	-8.39176
ent	-8.39471
▁GutenbergTM	-8.39826
▁two	-8.39846
▁dado	-8.40114
▁voluntad	-8.40425
▁mas	-8.40831
Illustration	-8.41027
be	-8.41303
las	-8.41385
▁e	-8.41936
▁da	-8.41966
▁day	-8.42166
▁quite	-8.42459
▁deseo	-8.42574
cha	-8.42591
▁gente	-8.42627
▁Toboso	-8.42857
▁causa	-8.42858
ase	-8.43071
nos	-8.43199
▁ventura	-8.43477
▁andantes	-8.43657
▁You	-8.43813
▁hope	-8.43859
▁vuestro	-8.43885
w	-8.44015
▁según	-8.44095
▁cuatro	-8.44096
▁over	-8.44232
▁cuerpo	-8.44721
▁too	-8.4476
▁entender	-8.44847
▁sido	-8.45324
qué	-8.45993
▁armas	-8.4631
ros	-8.46518
▁hermosa	-8.46624
▁And	-8.46947
▁rostro	-8.47104
No	-8.47515
qui	-8.47821
▁venta	-8.47878
▁ever	-8.48117
able	-8.48124
Qué	-8.48554
▁fe	-8.48687
▁away	-8.48713
▁aquellos	-8.48757
▁give	-8.48785
▁volver	-8.48995
C	-8.49182
▁went	-8.49222
▁B	-8.49269
▁tomar	-8.49365
▁tales	-8.49609
▁castillo	-8.49866
▁family	-8.49866
▁Así	-8.49922
▁long	-8.50053
▁tanta	-8.5022
▁doncella	-8.50448
▁menester	-8.50519
▁razón	-8.50531
▁S	-8.50672
▁poner	-8.50964
les	-8.51073
▁palabra	-8.51131
▁pasar	-8.51159
ia	-8.51165
▁llegó	-8.51205
▁quiso	-8.51206
ation	-8.51209
▁deste	-8.51386
▁par	-8.51386
▁iba	-8.51445
je	-8.51485
)	-8.5162
iendo	-8.51693
us	-8.51694
▁Camila	-8.52542
—.	-8.52694
▁caso	-8.52697
▁ti	-8.52714
▁persona	-8.52724
▁di	-8.53021
▁suerte	-8.53224
▁llevar	-8.53609
▁last	-8.53626
▁contra	-8.53637
▁caballería	-8.53897
▁fueron	-8.54057
▁mía	-8.54096
▁libros	-8.54297
S	-8.54497
▁siempre	-8.54596
▁alguno	-8.54603
va	-8.54705
▁its	-8.54864
ción	-8.55031
▁tienen	-8.55081
▁ninguna	-8.55291
▁nuestra	-8.55306
▁puso	-8.56003
▁señores	-8.56174
▁falta	-8.5659
▁cuales	-8.56645
▁muerte	-8.56694
▁nunca	-8.56694
▁suelo	-8.56699
áis	-8.56753
▁quiere	-8.57023
j	-8.5724
▁corazón	-8.57404
▁jamás	-8.57404
▁venía	-8.57721
ste	-8.57762
▁Lotario	-8.58118
tion	-8.58378
You	-8.58666
▁himself	-8.58837
▁''	-8.58974
▁vino	-8.58982
res	-8.59186
aron	-8.59235
▁off	-8.59271
ban	-8.59467
▁Anselmo	-8.59562
▁memoria	-8.59562
▁sabe	-8.60186
▁dicen	-8.60266
▁nadie	-8.60292
▁mother	-8.60292
▁father	-8.60294
▁ca	-8.60341
ñ	-8.60377
▁mayor	-8.60945
▁años	-8.61018
▁letter	-8.61027
▁always	-8.61028
▁however	-8.61043
▁Señor	-8.61047
▁agora	-8.61048
▁Lady	-8.61065
▁part	-8.61145
▁Por	-8.61176
ment	-8.6142
lla	-8.61475
id	-8.61618
▁M	-8.61737
▁Fernando	-8.61768
▁cierto	-8.61768
▁comenzó	-8.61768
▁young	-8.61814
▁came	-8.61896
pa	-8.61952
▁contento	-8.61962
▁mala	-8.6201
▁tuvo	-8.62558
▁entonces	-8.63365
▁dél	-8.6354
▁pies	-8.63664
pi	-8.63668
▁tras	-8.63811
▁Catherine	-8.64024
▁replied	-8.64024
▁voces	-8.64024
▁salir	-8.64039
▁fuerza	-8.64234
▁ra	-8.64248
ría	-8.64445
▁love	-8.6454
▁p	-8.64632
▁natural	-8.64652
lle	-8.64906
▁many	-8.64988
ity	-8.65137
▁g	-8.65139
ero	-8.65367
ad	-8.65578
▁pena	-8.6559
▁delante	-8.6564
▁room	-8.65778
▁friend	-8.65803
▁just	-8.66079
▁gobierno	-8.66331
▁enough	-8.66332
▁espada	-8.66334
ados	-8.66447
▁rey	-8.66536
▁oído	-8.66661
▁posible	-8.67113
▁felt	-8.67113
▁ar	-8.67411
▁algo	-8.67535
ue	-8.67654
X	-8.67899
▁hermosura	-8.679
▁cannot	-8.67913
án	-8.68206
▁sure	-8.68514
▁unos	-8.68593
k	-8.68626
apítulo	-8.68678
L	-8.68692
▁house	-8.68694
▁mitad	-8.6873
V	-8.68861
ían	-8.68896
▁quedó	-8.68935
▁libro	-8.69842
▁trata	-8.69928
▁They	-8.69929
▁hablar	-8.70145
rse	-8.70237
▁lengua	-8.70279
▁sol	-8.70453
▁T	-8.70663
,--	-8.70882
▁tus	-8.70973
▁poder	-8.71112
▁sería	-8.71484
ful	-8.71853
▁palabras	-8.72011
▁pa	-8.72207
▁buscar	-8.72212
▁wish	-8.7223
▁haya	-8.72416
▁looked	-8.7293
▁grandes	-8.73022
▁ínsula	-8.73171
▁hacía	-8.7321
▁venir	-8.73615
ted	-8.73626
el	-8.73743
rme	-8.73801
tro	-8.74021
▁rucio	-8.74435
▁mar	-8.74705
▁loco	-8.74933
▁place	-8.75052
▁muerto	-8.7528
▁ventero	-8.7528
▁f	-8.7535
po	-8.75364
dor	-8.75647
▁moment	-8.76066
▁demás	-8.76136
▁viendo	-8.76146
ven	-8.76329
ion	-8.76413
▁nuevo	-8.76634
▁hora	-8.76695
at	-8.76774
▁present	-8.76778
vo	-8.76793
▁saw	-8.76997
▁hermano	-8.77001
▁began	-8.77016
iese	-8.77117
that	-8.77282
▁debía	-8.77436
▁1.	-8.77496
▁pro	-8.7775
▁están	-8.77859
▁ciudad	-8.77867
▁fama	-8.77879
h	-8.77891
bo	-8.77936
▁heard	-8.78063
jo	-8.78187
▁ba	-8.78404
T	-8.78477
▁algunos	-8.78735
▁volvió	-8.78752
sen	-8.79213
▁even	-8.79255
éis	-8.7933
óse	-8.79567
▁bachiller	-8.79629
▁suyo	-8.79657
▁medio	-8.79725
fi	-8.79729
▁casi	-8.7998
tra	-8.80468
▁better	-8.80522
▁Dorotea	-8.80522
th	-8.80642
▁where	-8.80672
▁orden	-8.81266
▁ellas	-8.81317
ver	-8.81386
▁pensar	-8.81423
▁habéis	-8.81448
▁cried	-8.8149
ER	-8.81525
▁hallar	-8.82156
▁If	-8.82536
▁boca	-8.82681
▁Todo	-8.82744
▁dé	-8.82883
▁amor	-8.8305
▁found	-8.83249
▁pueblo	-8.83249
▁tra	-8.83548
man	-8.83595
ic	-8.83887
▁take	-8.83917
tu	-8.84062
▁ello	-8.84083
▁entrar	-8.8411
▁nosotros	-8.84175
▁pareció	-8.84175
▁subject	-8.84175
▁F	-8.84208
if	-8.84213
▁till	-8.84307
nce	-8.84388
▁tantas	-8.84436
▁comer	-8.85104
▁intención	-8.8511
▁mozo	-8.8511
▁ese	-8.85632
rá	-8.85679
▁does	-8.85791
▁junto	-8.85889
▁vista	-8.86078
ieron	-8.86103
▁aquello	-8.86173
adas	-8.86621
emos	-8.86655
▁c	-8.86655
▁daba	-8.86725
▁estado	-8.86806
▁general	-8.86886
▁batalla	-8.87006
for	-8.87174
''.	-8.87335
▁To	-8.87594
▁ocasión	-8.87967
▁Pedro	-8.87967
mi	-8.88121
▁primera	-8.88257
▁done	-8.88472
cen	-8.88623
▁honra	-8.88643
aban	-8.88791
▁Gardiner	-8.88938
▁tell	-8.89186
▁here	-8.89292
mp	-8.89512
▁sacar	-8.89639
▁quitar	-8.89662
ble	-8.89687
▁Que	-8.89835
▁myself	-8.89918
▁pleasure	-8.89918
▁campo	-8.89918
▁pe	-8.89922
▁siendo	-8.90067
▁often	-8.9033
▁solo	-8.90596
▁gana	-8.90662
▁hijo	-8.90832
▁ve	-8.90846
un	-8.90905
▁cuento	-8.90911
▁O	-8.90941
he	-8.91191
▁look	-8.91517
▁pensamientos	-8.91547
ha	-8.91739
▁particular	-8.9179
▁pobre	-8.91803
▁della	-8.91825
▁manner	-8.91839
▁Cardenio	-8.91908
▁same	-8.9191
▁podría	-8.91911
▁paso	-8.91928
▁anything	-8.91977
▁pudo	-8.92003
▁really	-8.92022
F	-8.9209
▁buenos	-8.9223
▁per	-8.92262
▁Her	-8.9234
▁parecía	-8.92478
▁viene	-8.92483
▁cu	-8.92581
▁llegar	-8.92592
gue	-8.92832
▁lágrimas	-8.92918
▁pienso	-8.92919
▁get	-8.92924
ina	-8.93184
ándose	-8.93482
▁believe	-8.9369
▁estoy	-8.93738
▁haga	-8.93876
▁Luscinda	-8.93939
▁next	-8.93939
▁having	-8.94024
▁So	-8.94186
▁E	-8.94501
fe	-8.94701
cia	-8.94882
▁real	-8.94925
▁famoso	-8.94955
▁adonde	-8.9497
▁puedo	-8.9497
▁libre	-8.94976
▁mesma	-8.94991
ul	-8.95068
ive	-8.95127
▁sola	-8.95266
▁dellos	-8.95395
▁Lo	-8.95401
▁hombres	-8.9546
▁once	-8.95697
ré	-8.95829
▁ninguno	-8.96011
▁podrá	-8.96037
arse	-8.96309
▁pre	-8.96371
▁works	-8.96599
▁consider	-8.96621
▁tenga	-8.96791
▁aposento	-8.97064
▁media	-8.97066
▁desgracia	-8.97107
▁added	-8.97111
▁quería	-8.97167
▁creo	-8.97172
▁aventuras	-8.97636
si	-8.97676
▁bo	-8.97777
▁head	-8.97967
▁bueno	-8.97985
▁pueda	-8.98131
▁partes	-8.98186
cho	-8.98274
▁pudiera	-8.98761
▁In	-8.98929
et	-8.99055
▁señal	-8.99098
idad	-8.99141
▁feelings	-8.99142
▁Caballero	-8.99203
▁half	-8.99204
▁indeed	-8.99207
▁seemed	-8.99275
—:	-8.99298
▁vea	-8.99351
It	-8.99396
▁oro	-8.99428
im	-8.99692
▁whole	-8.99769
▁visit	-9.00267
▁hubo	-9.00305
▁carta	-9.00414
▁upon	-9.00449
▁whom	-9.00548
▁misma	-9.00593
▁sabía	-9.00947
▁kind	-9.01364
▁Teresa	-9.01389
▁cabo	-9.01412
▁ro	-9.01448
▁far	-9.01744
▁agua	-9.01779
▁tantos	-9.02228
▁Al	-9.0229
▁autor	-9.02353
▁libertad	-9.025
▁something	-9.025
▁conmigo	-9.025
▁éste	-9.02501
▁ama	-9.02513
▁back	-9.02515
sta	-9.02845
▁brazos	-9.03148
▁suele	-9.03209
▁hear	-9.03323
▁ten	-9.03476
▁llaman	-9.03582
▁three	-9.03624
▁aquellas	-9.03628
▁ill	-9.03636
▁cerca	-9.03678
▁asno	-9.03843
▁Re	-9.03935
▁toca	-9.04
▁li	-9.04051
▁our	-9.04218
▁trabajo	-9.04389
▁contar	-9.04465
▁Longbourn	-9.0476
▁still	-9.04762
▁seen	-9.04847
▁both	-9.04855
▁dando	-9.05001
▁dis	-9.05153
▁aunt	-9.05169
▁llamar	-9.05236
▁Mas	-9.05363
▁use	-9.05502
▁buenas	-9.05806
ck	-9.0582
▁Charlotte	-9.0591
▁world	-9.0591
▁quisiera	-9.0591
▁valeroso	-9.05911
▁rather	-9.05918
▁figura	-9.05941
▁suya	-9.05947
oh	-9.06061
▁llama	-9.06094
▁puerta	-9.06136
▁pecho	-9.06145
▁daughter	-9.06147
▁ce	-9.06278
▁esa	-9.06478
▁person	-9.06606
ña	-9.06659
▁traía	-9.06713
▁servir	-9.06984
▁venga	-9.07047
▁hu	-9.07066
▁juicio	-9.07072
▁morning	-9.07073
▁CHA	-9.07073
PT	-9.07086
▁valor	-9.07086
▁dieron	-9.07089
▁while	-9.07099
▁few	-9.07112
▁d	-9.07246
▁put	-9.07293
▁diablo	-9.07323
less	-9.0733
ies	-9.0779
▁speak	-9.08062
N	-9.0817
▁entendimiento	-9.08249
tas	-9.0825
▁mañana	-9.08252
▁Gutenberg	-9.08252
▁habiendo	-9.08275
▁yet	-9.0845
▁less	-9.0846
▁cuya	-9.0853
▁cor	-9.0881
▁deseos	-9.09005
▁lanza	-9.09213
des	-9.09396
▁discurso	-9.09439
▁hidalgo	-9.09439
▁Lizzy	-9.0953
che	-9.09746
▁peligro	-9.09851
▁going	-9.0998
And	-9.10054
illa	-9.10089
ísimo	-9.10207
car	-9.10232
▁dejó	-9.10498
ting	-9.10554
ty	-9.10638
▁course	-9.10644
▁ladies	-9.10648
▁salió	-9.10663
io	-9.10697
▁enamorado	-9.10705
▁certainly	-9.10749
▁pueden	-9.10954
▁preguntó	-9.11267
▁eyes	-9.11302
▁find	-9.11364
▁ma	-9.1145
▁fuere	-9.11542
▁rest	-9.11598
▁ven	-9.11677
▁oír	-9.11728
zo	-9.11838
▁happy	-9.11864
▁terms	-9.11864
▁sazón	-9.11864
▁idea	-9.11864
▁wonder	-9.11867
ng	-9.11892
▁left	-9.11913
▁marido	-9.11918
▁side	-9.12159
▁w	-9.12164
tar	-9.12252
▁"	-9.12258
▁ho	-9.12701
▁D	-9.12754
▁answer	-9.1289
▁since	-9.1292
M	-9.12943
▁mirar	-9.13032
est	-9.13053
▁electronic	-9.13098
▁brother	-9.13098
▁sucedió	-9.13098
▁least	-9.13108
▁pasó	-9.13185
▁nuevas	-9.1337
▁dueña	-9.13522
▁thing	-9.13524
▁sucesos	-9.13819
tre	-9.13895
▁diga	-9.14132
▁1	-9.14147
▁ex	-9.14332
▁opinion	-9.14348
▁remedio	-9.14348
▁apenas	-9.14348
▁perhaps	-9.14375
▁right	-9.14405
▁grandeza	-9.14415
▁Eso	-9.1456
▁evening	-9.14612
▁pan	-9.14741
▁ésta	-9.14784
▁pensamiento	-9.14802
▁b	-9.14839
ú	-9.14859
O	-9.14866
▁acabar	-9.15226
x	-9.15229
▁There	-9.15377
▁principal	-9.15434
▁espacio	-9.15582
▁leave	-9.15617
▁His	-9.15706
▁told	-9.15783
▁door	-9.15802
▁G	-9.15847
▁locura	-9.16086
▁rico	-9.16117
▁hi	-9.1622
but	-9.16325
▁want	-9.16694
oraida	-9.16896
▁another	-9.16897
▁España	-9.16897
▁took	-9.16934
▁algunas	-9.16975
▁When	-9.17049
▁discreto	-9.17389
▁po	-9.17421
▁cuantos	-9.17689
▁hubiera	-9.17752
▁cuán	-9.17985
▁return	-9.17987
▁fi	-9.18028
▁licencia	-9.1804
▁character	-9.18195
▁jumento	-9.18195
▁principio	-9.18195
▁Sansón	-9.18195
▁aún	-9.18203
▁caballerías	-9.18213
▁doña	-9.18277
▁hoy	-9.18291
▁received	-9.18306
ie	-9.18384
▁suceso	-9.18748
▁brazo	-9.18755
P	-9.18865
But	-9.18909
▁Ya	-9.18963
ándole	-9.19295
▁V	-9.19313
▁burla	-9.19428
▁pensaba	-9.19511
▁culpa	-9.19511
▁debajo	-9.19514
▁eres	-9.19565
▁andar	-9.19584
▁Queen	-9.19621
▁com	-9.19739
▁criado	-9.20127
amos	-9.20692
▁sean	-9.20753
▁silencio	-9.20844
▁voice	-9.20847
▁conversation	-9.20847
▁almost	-9.20847
▁presto	-9.20848
▁Ma	-9.20852
▁gone	-9.20864
▁madre	-9.20866
▁Bien	-9.20958
▁responder	-9.20991
▁mercedes	-9.21095
▁halló	-9.21098
▁Es	-9.21122
▁under	-9.21132
▁hacen	-9.21211
▁haré	-9.21218
▁esperar	-9.21527
▁got	-9.2177
dad	-9.21854
ien	-9.21948
ous	-9.21952
▁sisters	-9.21953
▁certain	-9.22078
▁lleva	-9.22098
▁triste	-9.22175
▁together	-9.22195
▁each	-9.22195
▁priesa	-9.22195
▁either	-9.22241
▁read	-9.22322
▁unas	-9.22346
▁mind	-9.22447
▁creer	-9.22452
ever	-9.22763
▁these	-9.2281
▁cristiano	-9.22856
▁reino	-9.2288
▁semejantes	-9.22965
▁hand	-9.23445
▁Finalmente	-9.23565
▁Netherfield	-9.23565
▁quizá	-9.23565
▁ánimo	-9.23565
▁therefore	-9.23566
▁lleno	-9.23568
▁life	-9.2358
▁because	-9.23611
▁home	-9.23709
▁L	-9.24096
▁imp	-9.24137
▁st	-9.24155
▁llamaba	-9.24197
ación	-9.24361
▁leer	-9.24376
nte	-9.2495
▁Foundation	-9.24954
▁knew	-9.24954
▁dolor	-9.24958
▁provecho	-9.24962
▁condición	-9.25002
▁seis	-9.2502
▁verdadero	-9.25064
▁This	-9.25158
▁means	-9.25266
con	-9.25321
▁care	-9.25484
ol	-9.2551
era	-9.25518
▁allá	-9.25587
▁j	-9.25646
▁desa	-9.25913
▁Lucas	-9.26227
▁aire	-9.26267
▁ri	-9.26302
one	-9.26342
▁ejercicio	-9.26362
▁happiness	-9.26365
▁uncle	-9.26367
▁leído	-9.26368
▁quisiere	-9.26673
▁nuestros	-9.26725
▁labrador	-9.2685
der	-9.27046
▁attention	-9.27123
▁vestido	-9.27137
What	-9.27185
gi	-9.2739
ísima	-9.27779
▁Kitty	-9.27791
▁hicieron	-9.27791
▁towards	-9.27795
▁tuviese	-9.27796
▁sat	-9.27854
▁querer	-9.27954
iera	-9.28066
▁estando	-9.28372
▁men	-9.28436
▁echar	-9.28627
1	-9.28638
▁Ha	-9.28679
▁things	-9.28751
▁reason	-9.28871
▁mira	-9.28892
▁obra	-9.29165
▁hubiese	-9.2924
▁people	-9.2924
▁doubt	-9.2924
▁King	-9.29241
▁between	-9.29241
▁gave	-9.29241
▁tomó	-9.29249
▁edad	-9.29272
▁esté	-9.2939
▁party	-9.29445
▁met	-9.29786
you	-9.29805
ran	-9.2991
ine	-9.29973
ica	-9.30043
▁venían	-9.30151
▁silla	-9.30173
▁Do	-9.30261
▁pasado	-9.30261
▁near	-9.30592
▁those	-9.30711
▁noticia	-9.30711
▁cuyo	-9.30712
▁luz	-9.30735
▁doncellas	-9.30889
▁tenido	-9.30921
▁alta	-9.31096
▁My	-9.31404
▁cristianos	-9.31479
B	-9.31587
▁verde	-9.31887
▁cabrero	-9.32203
▁whether	-9.32203
▁woman	-9.32203
▁point	-9.32204
▁temor	-9.32208
▁salud	-9.32216
▁reina	-9.32303
illo	-9.32355
▁daño	-9.32358
▁hazañas	-9.32411
▁coming	-9.32422
▁mayores	-9.32474
▁halla	-9.32629
▁pregunta	-9.32758
Y	-9.32797
um	-9.3303
▁word	-9.33154
▁sepa	-9.33657
▁basta	-9.33664
▁aldea	-9.33687
▁espaldas	-9.33718
▁marriage	-9.33718
▁town	-9.33727
▁querría	-9.33735
▁quit	-9.33735
▁perder	-9.33738
▁passed	-9.33775
▁full	-9.33879
▁deja	-9.34066
▁hago	-9.34234
▁sent	-9.34362
▁Su	-9.34417
▁darle	-9.34425
▁gracias	-9.34713
▁walk	-9.34862
ier	-9.34908
▁vuestras	-9.35051
▁virtud	-9.35122
▁Antonio	-9.35257
▁Colonel	-9.35257
▁cautivo	-9.35257
▁dormir	-9.35257
▁sangre	-9.35257
▁servido	-9.35258
▁oficio	-9.35484
▁dije	-9.35575
▁mu	-9.35793
par	-9.35826
▁dijese	-9.35923
▁padres	-9.35925
▁ta	-9.361
▁tenían	-9.36102
▁enemigo	-9.36303
▁ante	-9.36476
▁guarda	-9.36501
▁barbas	-9.36732
▁affection	-9.36813
▁compañía	-9.36819
▁necesidad	-9.36819
▁through	-9.36819
▁entró	-9.3682
▁everything	-9.3682
▁stay	-9.36831
▁renegado	-9.36837
▁immediately	-9.36856
▁baja	-9.36899
▁encantadores	-9.36914
▁against	-9.36964
▁muestras	-9.36966
lu	-9.37083
the	-9.37237
Yes	-9.37323
ied	-9.37425
▁Di	-9.37484
▁others	-9.37569
▁given	-9.37871
▁fortuna	-9.38285
▁pu	-9.38385
▁honour	-9.38407
▁sobrina	-9.38407
▁acquaintance	-9.38407
▁help	-9.3841
▁maese	-9.38416
▁Sí	-9.38534
▁pastor	-9.38623
▁comp	-9.3884
▁alcanza	-9.3902
ay	-9.3922
▁criados	-9.39316
▁quedar	-9.39357
▁pasa	-9.3953
▁valiente	-9.39544
▁spoke	-9.39576
▁diese	-9.39618
▁caer	-9.39643
▁sal	-9.39911
▁Carrasco	-9.4002
▁conocido	-9.4002
▁negocio	-9.4002
▁vencido	-9.4002
▁Altisidora	-9.40035
▁All	-9.40084
▁hemos	-9.40105
ez	-9.40169
miento	-9.40443
▁hallado	-9.40487
▁azotes	-9.40487
ico	-9.40489
▁set	-9.40543
▁trae	-9.40653
▁pesar	-9.40876
▁state	-9.40981
▁whose	-9.41124
▁conocer	-9.41179
▁habrá	-9.41215
▁suppose	-9.41409
▁ingenio	-9.41628
▁object	-9.41643
▁cousin	-9.41659
▁princesa	-9.41659
▁resolución	-9.41659
▁consigo	-9.41659
▁mandó	-9.41663
▁possible	-9.41698
▁hardly	-9.41707
▁continued	-9.41725
▁Porque	-9.41728
can	-9.41738
▁tone	-9.41832
▁called	-9.41943
▁amigos	-9.42024
▁As	-9.42251
▁van	-9.42375
cor	-9.42534
D	-9.43079
▁presente	-9.43089
▁encantado	-9.43233
▁emp	-9.43315
▁agravio	-9.43326
▁diciéndole	-9.43326
▁ningún	-9.43326
▁respuesta	-9.43326
▁married	-9.43326
▁haciendo	-9.43326
▁sort	-9.43335
▁diez	-9.43346
▁Los	-9.4341
▁obras	-9.43416
▁round	-9.43443
▁escuderos	-9.43626
ones	-9.43651
▁looking	-9.43705
encia	-9.43965
▁seeing	-9.44048
▁best	-9.44283
per	-9.44532
▁form	-9.44562
▁gigante	-9.4463
▁nueva	-9.44648
▁large	-9.44708
▁case	-9.4477
▁Turtle	-9.45021
▁different	-9.45021
▁occasion	-9.45021
▁yourself	-9.45021
▁acabó	-9.45021
▁grave	-9.45034
▁poor	-9.45057
▁paje	-9.45062
▁paz	-9.45084
▁hambre	-9.45085
▁carro	-9.45099
▁turned	-9.45165
▁hijos	-9.45179
▁veo	-9.45331
▁alegre	-9.45501
em	-9.45931
▁sh	-9.4606
▁alcanzar	-9.46084
sol	-9.46196
ras	-9.46256
▁pasaba	-9.46402
▁respect	-9.46723
▁finalmente	-9.46745
▁cuidado	-9.46745
▁pedir	-9.46745
▁vieron	-9.46746
▁ought	-9.46824
▁Digo	-9.46928
▁mean	-9.47069
osa	-9.47211
▁suelen	-9.47419
▁cre	-9.47796
My	-9.48024
He	-9.48109
▁plática	-9.48171
▁qui	-9.4818
oso	-9.4821
gar	-9.48211
ure	-9.4831
▁fee	-9.48466
▁Meryton	-9.48499
▁business	-9.48499
▁género	-9.48499
▁Mock	-9.48499
▁estuvo	-9.48499
▁esposo	-9.48499
▁London	-9.485
▁lady	-9.48542
▁vivo	-9.48551
▁asked	-9.48664
▁talking	-9.48691
▁licenciado	-9.48709
▁desp	-9.49054
The	-9.49113
▁guardar	-9.49166
▁du	-9.49473
▁fr	-9.49673
preguntó	-9.4968
▁dineros	-9.49929
▁poeta	-9.49986
▁dance	-9.50134
▁letras	-9.50199
▁busca	-9.50263
▁costumbre	-9.50285
▁discreción	-9.50285
▁husband	-9.50285
▁sucedido	-9.50285
▁regard	-9.50285
▁country	-9.50287
▁name	-9.50288
▁perfectly	-9.50345
▁sp	-9.50438
am	-9.50438
▁corte	-9.50465
▁table	-9.50535
ow	-9.5079
ist	-9.5079
▁pagar	-9.50812
▁known	-9.51183
▁doy	-9.51192
R	-9.51217
▁favor	-9.51262
llo	-9.51327
▁oídos	-9.51511
ry	-9.51604
▁pone	-9.51711
▁gra	-9.51724
▁appear	-9.51888
▁short	-9.51982
▁Gryphon	-9.52103
▁Hatter	-9.52103
▁Pemberley	-9.52103
▁behaviour	-9.52103
▁hacienda	-9.52103
▁veinte	-9.52103
▁encima	-9.52105
▁estremo	-9.52111
▁escribir	-9.52129
▁claro	-9.52134
▁merece	-9.5214
▁miedo	-9.52141
▁face	-9.52175
▁llegaron	-9.52248
▁reales	-9.5236
▁lejos	-9.52523
▁queda	-9.52624
▁sois	-9.52765
▁Ca	-9.52804
▁destos	-9.52821
cio	-9.5302
"	-9.53277
▁friends	-9.53359
▁At	-9.53559
▁escrito	-9.53712
iente	-9.53749
▁verdadera	-9.53762
rra	-9.53801
tri	-9.53915
Quién	-9.53955
▁linaje	-9.53955
▁sabio	-9.53955
▁esposa	-9.53955
▁cortesía	-9.53956
▁simple	-9.53957
▁acaso	-9.53959
▁copyright	-9.53967
▁agreement	-9.53972
▁risa	-9.54001
▁esperando	-9.54004
▁mirando	-9.54039
▁sense	-9.54043
▁quedaron	-9.54091
▁tea	-9.54118
▁walked	-9.54206
▁rep	-9.54575
▁levantar	-9.54599
▁end	-9.55046
ín	-9.55097
ás	-9.55172
That	-9.5523
amente	-9.55259
▁heart	-9.5551
▁We	-9.55531
▁ayuda	-9.55657
▁muestra	-9.55665
▁huésped	-9.55706
▁poca	-9.55709
ntes	-9.55746
▁costa	-9.55776
▁Basilio	-9.55842
▁Montesinos	-9.55842
▁acuerdo	-9.55842
▁dueño	-9.55842
▁imposible	-9.55842
▁vaya	-9.55851
▁cumplir	-9.55869
▁dejando	-9.55984
▁punta	-9.56003
▁oí	-9.56168
▁ansí	-9.56195
▁mesa	-9.56201
▁dura	-9.56207
▁armado	-9.56228
▁mentira	-9.56248
▁versos	-9.56327
▁mujeres	-9.56428
▁ahí	-9.56493
▁lu	-9.56592
▁What	-9.5665
▁dueñas	-9.5712
ance	-9.57178
▁able	-9.57382
red	-9.57528
▁feel	-9.57747
▁William	-9.57765
▁asimismo	-9.57765
▁blanco	-9.57765
▁efecto	-9.57765
▁decís	-9.57765
▁presencia	-9.57767
▁dentro	-9.5779
▁peor	-9.57826
▁daré	-9.57935
▁fuego	-9.58118
nes	-9.58147
▁call	-9.58384
cos	-9.58461
▁estima	-9.58932
nza	-9.58985
▁traer	-9.59007
▁San	-9.59088
remos	-9.5915
▁play	-9.59242
▁manda	-9.59281
ant	-9.59298
▁corta	-9.59584
▁deje	-9.59718
▁account	-9.59726
▁diligencia	-9.59726
▁power	-9.59726
▁wife	-9.59726
▁viento	-9.59737
▁ruido	-9.59747
▁settled	-9.59777
iéndose	-9.59913
tado	-9.59944
▁fine	-9.6012
▁H	-9.60199
▁How	-9.6029
▁puesta	-9.60291
én	-9.60377
iza	-9.6044
),	-9.60452
ente	-9.61082
gas	-9.61113
▁fuerte	-9.61684
▁agree	-9.61691
▁encantamento	-9.61726
▁justicia	-9.61726
▁pesadumbre	-9.61726
▁sueño	-9.61726
▁carriage	-9.61726
▁Roque	-9.61737
▁largo	-9.61744
▁cargo	-9.61752
▁moro	-9.61759
▁cuál	-9.61786
▁corre	-9.61885
▁offer	-9.61962
▁dare	-9.62019
▁vale	-9.62092
▁words	-9.62477
▁nor	-9.62544
▁saying	-9.62676
ving	-9.62835
▁let	-9.62975
▁Sir	-9.63035
▁iban	-9.63053
ice	-9.63164
▁aquél	-9.63485
asen	-9.63551
▁concern	-9.63558
▁quieres	-9.6361
▁término	-9.63732
▁Rosings	-9.63766
▁advantage	-9.63766
▁afraid	-9.63766
▁bondad	-9.63766
▁viejo	-9.63767
▁usual	-9.63784
▁primo	-9.63787
▁agreeable	-9.63788
▁traje	-9.63812
▁diré	-9.63822
▁voy	-9.63827
▁On	-9.63868
▁moros	-9.63875
▁dejado	-9.64006
▁pase	-9.64049
▁ball	-9.64082
▁Pa	-9.64405
endo	-9.64429
▁disparates	-9.6445
▁dan	-9.64582
▁presentes	-9.64588
▁ran	-9.64913
▁supo	-9.64981
áronse	-9.65015
ino	-9.65182
room	-9.65248
quién	-9.65269
▁daughters	-9.65418
her	-9.65432
▁minutes	-9.65496
bre	-9.65532
▁pi	-9.65644
she	-9.65673
▁girls	-9.65738
▁rode	-9.65763
▁mostrar	-9.65794
▁deben	-9.65805
por	-9.65814
▁Figura	-9.6585
▁Triste	-9.6585
▁efeto	-9.6585
▁impossible	-9.6585
▁matter	-9.6585
▁propósito	-9.6585
▁servicio	-9.6585
▁vuelto	-9.6585
▁cueva	-9.6585
▁donaire	-9.6585
▁glad	-9.6585
Cómo	-9.65852
▁consejo	-9.65857
▁acá	-9.65864
▁contó	-9.65889
▁verse	-9.65983
▁verá	-9.6602
▁N	-9.66055
▁carga	-9.66076
▁dónde	-9.66114
▁fear	-9.66118
—”	-9.66216
▁año	-9.66233
▁mono	-9.66252
▁obligado	-9.66312
▁sub	-9.66456
▁ap	-9.66465
▁dirá	-9.66496
cre	-9.66518
▁enemigos	-9.66544
▁hall	-9.66629
▁cer	-9.66933
▁air	-9.66944
How	-9.67375
▁fuerzas	-9.67386
▁talk	-9.6775
den	-9.67774
▁remo	-9.67783
▁live	-9.67936
tura	-9.67947
▁gentil	-9.67977
▁Rabbit	-9.67977
▁albarda	-9.67977
▁cólera	-9.67977
▁gloria	-9.67977
▁hiciese	-9.67977
▁opinión	-9.67977
▁write	-9.67977
▁belleza	-9.67978
▁cinco	-9.67978
▁pusieron	-9.67978
▁handsome	-9.67982
▁venganza	-9.6799
▁car	-9.67997
▁subir	-9.68013
▁pride	-9.68027
▁venido	-9.68031
▁dicha	-9.68048
▁former	-9.68088
▁llegando	-9.68091
▁monte	-9.68107
▁contrario	-9.68127
▁tienes	-9.68184
▁bu	-9.68224
▁longer	-9.68231
▁returned	-9.6832
▁hacia	-9.68325
cin	-9.68443
▁contado	-9.68729
▁vestidos	-9.68963
...	-9.69357
dores	-9.69403
▁U	-9.6941
▁cur	-9.69667
▁habla	-9.69677
▁destas	-9.69803
▁marry	-9.69983
▁inclin	-9.70131
ate	-9.70139
▁Esta	-9.70144
▁especialmente	-9.70151
▁seguro	-9.70151
▁segunda	-9.70151
▁silence	-9.70152
▁cabellos	-9.70154
▁entiendo	-9.70159
▁imaginación	-9.7016
▁old	-9.70213
▁clara	-9.70222
▁tarde	-9.70251
▁esperanza	-9.7026
▁girl	-9.70268
▁desdichado	-9.7027
▁manners	-9.70306
If	-9.70329
▁barba	-9.70356
▁personas	-9.70373
▁igual	-9.70455
▁feeling	-9.70495
▁»—	-9.70499
▁amores	-9.70613
ito	-9.70858
▁llega	-9.71082
▁within	-9.71098
tan	-9.71361
▁historias	-9.71363
min	-9.7143
▁darme	-9.71451
▁fui	-9.71494
▁ponga	-9.71504
rio	-9.71617
▁anda	-9.71622
U	-9.71647
▁letra	-9.71661
▁mon	-9.71675
imos	-9.71753
▁cal	-9.71804
▁pudiese	-9.71927
▁pide	-9.72062
▁nuestras	-9.72324
▁George	-9.72373
▁Rodríguez	-9.72373
▁States	-9.72373
▁United	-9.72373
▁recebir	-9.72373
▁todavía	-9.72374
▁viaje	-9.72374
▁oyó	-9.72377
▁Mary	-9.72396
▁instante	-9.72416
▁pain	-9.72439
▁enter	-9.72455
▁tuvieron	-9.7246
▁Ahora	-9.72504
▁pleased	-9.72555
▁ask	-9.7259
▁likely	-9.72867
▁paga	-9.72879
▁quita	-9.72976
▁prove	-9.72986
▁vela	-9.72998
▁fueran	-9.73099
▁else	-9.73586
▁escudos	-9.73675
▁andaba	-9.73757
▁quieren	-9.73758
▁saca	-9.7386
▁years	-9.73894
▁procura	-9.74035
▁preguntar	-9.74379
▁expect	-9.74418
Es	-9.74446
▁emperador	-9.7451
aciones	-9.7452
▁fa	-9.74572
▁inform	-9.74632
▁Amadís	-9.74646
▁arriba	-9.74646
▁título	-9.74646
▁guerra	-9.74646
▁honestidad	-9.74648
▁tuviera	-9.74649
▁second	-9.7465
▁four	-9.74655
▁civility	-9.74656
▁espera	-9.74658
▁morir	-9.74666
▁muchacho	-9.74701
▁árboles	-9.74727
▁cama	-9.74745
ish	-9.74789
▁negro	-9.74808
▁book	-9.74813
▁arm	-9.74822
▁expected	-9.74855
▁carne	-9.74862
▁pasaron	-9.74924
▁corona	-9.74995
▁question	-9.75031
▁llamado	-9.75091
▁sale	-9.75539
▁days	-9.75569
unt	-9.75649
▁primer	-9.75723
rle	-9.75752
▁val	-9.75806
ria	-9.75852
▁labradora	-9.75948
▁muda	-9.7601
▁lado	-9.76103
jos	-9.76184
▁escrib	-9.76211
▁faltar	-9.76277
Well	-9.76371
▁sabes	-9.76542
▁llevaba	-9.76688
▁keep	-9.7678
▁allow	-9.7691
▁justo	-9.7692
▁quedaba	-9.76934
▁fuesen	-9.76953
▁small	-9.7696
▁cruel	-9.76969
▁amistad	-9.76972
▁pendencia	-9.76972
▁scarcely	-9.76972
▁seguir	-9.76972
▁Bosque	-9.76972
▁digna	-9.76972
▁sometimes	-9.76972
▁Diego	-9.76976
▁Juan	-9.76988
▁sacó	-9.77034
▁buscando	-9.77051
▁Cuan	-9.77108
▁llevó	-9.77129
▁llegado	-9.77149
▁discreta	-9.77222
▁imagin	-9.77456
▁prosigue	-9.77461
▁haría	-9.77524
ily	-9.77696
cer	-9.77738
▁horas	-9.77956
▁contenta	-9.7813
▁correr	-9.78145
▁esperaba	-9.78153
▁dices	-9.78222
▁pes	-9.78368
idos	-9.78397
ura	-9.7841
rios	-9.78436
▁sala	-9.78632
▁represent	-9.78705
G	-9.78738
uel	-9.78869
▁change	-9.791
▁smile	-9.79101
▁assure	-9.79109
▁Duchess	-9.79353
▁Leonela	-9.79353
▁brought	-9.79353
▁canónigo	-9.79353
▁cristiana	-9.79353
▁estraña	-9.79353
▁pidió	-9.79353
▁vivir	-9.79353
▁Vuestra	-9.79353
▁caído	-9.79353
▁Ladyship	-9.79355
▁verdaderamente	-9.79411
▁mover	-9.79434
▁molido	-9.79472
▁Aquí	-9.79492
▁Esto	-9.79494
▁cause	-9.79551
▁sentido	-9.79567
▁matar	-9.79709
▁grado	-9.79752
▁content	-9.79802
ese	-9.79955
▁acompañ	-9.79991
▁due	-9.80048
▁true	-9.80071
▁DE	-9.80271
▁mejores	-9.80319
pt	-9.80377
▁esas	-9.80457
zar	-9.80755
▁br	-9.80789
▁also	-9.80823
▁used	-9.80983
▁turn	-9.81408
▁surprise	-9.81543
▁Mira	-9.81612
▁papel	-9.81658
▁comfort	-9.8177
opyright	-9.81777
▁Bourgh	-9.81792
▁Hertfordshire	-9.81792
▁compliment	-9.81792
▁endeavour	-9.81792
▁jardín	-9.81792
▁moza	-9.81793
▁experiencia	-9.81794
▁design	-9.81794
▁provide	-9.81795
▁abajo	-9.81797
▁everybody	-9.81798
▁mostraba	-9.818
▁oidor	-9.81801
▁señas	-9.81824
▁oyeron	-9.81824
ho	-9.81842
▁After	-9.81845
▁larga	-9.81911
▁surprised	-9.82041
▁volv	-9.82071
▁new	-9.8218
▁hour	-9.8223
▁alto	-9.82342
tor	-9.82416
▁vol	-9.82501
óle	-9.82525
▁acaba	-9.82579
cul	-9.82735
▁cumpl	-9.82757
▁sir	-9.82776
▁mov	-9.8281
▁descubr	-9.82918
▁pasada	-9.82996
▁llegaba	-9.83325
▁uso	-9.83327
▁deal	-9.8361
En	-9.84002
▁express	-9.84067
▁leyes	-9.84181
▁cat	-9.84248
▁except	-9.84291
▁Archive	-9.84292
▁Dormouse	-9.84292
▁Quiteria	-9.84292
▁industria	-9.84292
▁Forster	-9.84292
▁fortune	-9.84292
▁fácil	-9.84292
▁gentlemen	-9.84292
▁grandísimo	-9.84292
▁conciencia	-9.84292
▁quisiese	-9.84292
▁yelmo	-9.84294
▁gentleman	-9.84294
▁admiración	-9.84299
▁derecha	-9.843
▁making	-9.84302
▁opportunity	-9.84305
▁show	-9.84306
▁repeated	-9.84395
gra	-9.84402
▁alzó	-9.8446
▁oye	-9.8449
rove	-9.84501
▁pastores	-9.84502
▁entered	-9.84525
▁appeared	-9.8458
ther	-9.84721
▁dama	-9.84863
▁wished	-9.84931
▁siglos	-9.84971
▁veras	-9.85203
▁conoce	-9.85208
▁engaño	-9.85507
▁Las	-9.86125
▁thank	-9.86267
▁damas	-9.86393
▁viese	-9.86444
▁san	-9.86458
▁understand	-9.86667
▁remark	-9.86831
▁solicit	-9.86856
▁Literary	-9.86856
▁dinner	-9.86856
▁estraño	-9.86856
▁nacido	-9.86856
▁paragraph	-9.86856
▁rodillas	-9.86856
▁situation	-9.86856
▁Cide	-9.86857
▁dientes	-9.86857
▁divers	-9.86857
▁temeroso	-9.8686
▁plan	-9.86868
▁podré	-9.86872
▁quiera	-9.86872
▁convinced	-9.86879
▁hará	-9.86884
▁night	-9.86911
▁why	-9.86927
▁diera	-9.86928
▁ventana	-9.87003
▁malos	-9.87015
ció	-9.87028
▁envi	-9.87172
▁señales	-9.87176
▁tocar	-9.87361
▁dinero	-9.87413
▁R	-9.87443
▁llevado	-9.87543
▁spirits	-9.87552
▁representa	-9.87559
▁turba	-9.87644
▁volviese	-9.87672
▁vuestros	-9.87737
▁pedía	-9.87796
._	-9.87904
▁pri	-9.87946
▁vienen	-9.87982
▁deseaba	-9.88116
▁leguas	-9.88224
cía	-9.88737
▁hablado	-9.89077
▁podían	-9.89119
uda	-9.89335
▁high	-9.89359
▁cien	-9.89452
▁conozco	-9.89487
▁jaula	-9.89487
▁levantó	-9.89487
▁mayordomo	-9.89488
▁comedia	-9.89488
▁Luis	-9.895
▁salido	-9.89527
▁perlas	-9.89554
▁celos	-9.89559
▁view	-9.89577
▁anyone	-9.89598
▁Vi	-9.8961
▁momento	-9.89704
▁talked	-9.89747
▁hallaron	-9.89754
tenta	-9.89761
▁señoras	-9.89767
▁mata	-9.89833
▁ru	-9.8988
▁speaking	-9.8991
▁answered	-9.89936
ador	-9.89954
▁rob	-9.9003
eña	-9.90054
▁desventura	-9.90082
▁An	-9.90083
▁believed	-9.90137
▁Par	-9.90166
▁maravilla	-9.90212
ling	-9.90278
▁meet	-9.90319
▁mías	-9.90503
▁hechos	-9.90587
▁echa	-9.91086
cómo	-9.91611
▁imaginar	-9.9192
▁remember	-9.91977
▁accept	-9.9198
▁interest	-9.92014
▁mention	-9.92025
▁liberal	-9.92177
▁capitán	-9.9219
▁engaged	-9.9219
▁gobernar	-9.9219
▁invitation	-9.9219
▁officers	-9.9219
▁paciencia	-9.9219
▁respeto	-9.9219
▁sepultura	-9.9219
▁themselves	-9.9219
▁vuelta	-9.9219
▁credit	-9.9219
▁plaza	-9.9219
▁cuello	-9.9219
▁Hamete	-9.9219
▁tornó	-9.92191
▁March	-9.92191
▁ausencia	-9.92191
▁entrambos	-9.92192
▁derecho	-9.92195
▁firme	-9.92197
▁exactly	-9.92206
▁close	-9.92208
▁ago	-9.92211
▁trans	-9.92226
▁paid	-9.92251
▁coche	-9.92286
▁retir	-9.92377
▁duques	-9.92421
▁encamina	-9.92566
▁vamos	-9.92568
▁Sa	-9.92719
▁alone	-9.92724
▁galeras	-9.92748
llas	-9.92816
▁cost	-9.92825
▁confirm	-9.93008
▁declara	-9.93335
▁toma	-9.93368
▁fu	-9.93456
▁taken	-9.93538
▁lecho	-9.93558
▁hacían	-9.93634
tic	-9.93825
▁encantador	-9.9428
▁cri	-9.94313
▁pocos	-9.94505
▁news	-9.94527
▁open	-9.94576
▁viniese	-9.94607
▁pic	-9.94748
▁copy	-9.94775
▁grow	-9.94777
▁Llegó	-9.94811
ual	-9.94934
▁Camacho	-9.94968
▁Fitzwilliam	-9.94968
▁Philips	-9.94968
▁access	-9.94968
▁attempt	-9.94968
▁beyond	-9.94968
▁mezcla	-9.94968
▁pleasant	-9.94968
▁segundo	-9.94968
▁sombra	-9.94968
▁thousand	-9.94968
▁written	-9.94968
▁amenaza	-9.94968
▁miserable	-9.94968
▁neither	-9.94968
▁celada	-9.94968
▁sorry	-9.94969
▁vecino	-9.94969
▁juro	-9.94969
▁famosa	-9.94969
▁amiable	-9.94969
▁master	-9.94971
▁piensa	-9.94975
▁merely	-9.94975
▁silent	-9.94983
▁information	-9.94995
▁instantly	-9.94996
▁donations	-9.95
▁depend	-9.95003
▁volvieron	-9.9501
▁trademark	-9.95011
▁hermoso	-9.95021
▁encantada	-9.95021
▁among	-9.95031
▁cierta	-9.95097
sele	-9.951
▁With	-9.95166
▁prosiguió	-9.95239
▁minute	-9.95443
▁reyes	-9.95452
▁traza	-9.95473
▁ocho	-9.95503
▁For	-9.95621
▁golpe	-9.95697
▁trabajos	-9.95898
▁W	-9.95938
sh	-9.96061
▁usar	-9.96091
▁llorar	-9.96174
▁desto	-9.9638
▁palos	-9.9647
▁hecha	-9.96824
▁determin	-9.9696
▁honrado	-9.96995
▁serlo	-9.97054
Do	-9.97331
▁tiempos	-9.97421
▁receive	-9.97583
▁address	-9.97615
▁oblig	-9.97722
king	-9.97764
▁Dolorida	-9.97825
▁Ricote	-9.97825
▁artificio	-9.97825
▁atrevido	-9.97825
▁creyendo	-9.97825
▁gracioso	-9.97825
▁hábito	-9.97825
▁presteza	-9.97825
▁profesión	-9.97825
▁satisfied	-9.97825
▁mancebo	-9.97825
▁entrañas	-9.97825
▁need	-9.97825
▁children	-9.97825
▁éstos	-9.97825
▁strong	-9.97826
▁Luego	-9.97826
▁aderez	-9.97827
▁prado	-9.97832
▁tried	-9.97834
▁expression	-9.97843
▁tenemos	-9.97864
▁condesa	-9.97867
▁querido	-9.97869
▁Santa	-9.97907
▁following	-9.97969
▁bastante	-9.98028
▁imagino	-9.98048
jó	-9.98093
▁salida	-9.98108
▁particularly	-9.98167
▁wishes	-9.98293
▁pedazos	-9.98416
▁secreto	-9.98429
para	-9.98431
▁juntos	-9.98447
▁vee	-9.98458
▁doce	-9.98632
▁soldado	-9.98649
▁míos	-9.99017
De	-9.991
▁Ni	-9.99137
▁beg	-9.99347
▁acudi	-9.9968
▁importa	-9.99796
▁levanta	-9.99829
▁parar	-10.0002
▁haberle	-10.001
▁decían	-10.0011
azo	-10.0022
▁entra	-10.0046
▁join	-10.0056
▁Hurst	-10.0077
▁asimesmo	-10.0077
▁charge	-10.0077
▁confuso	-10.0077
▁descubierto	-10.0077
▁facilidad	-10.0077
▁médico	-10.0077
▁pequeño	-10.0077
▁sobresalto	-10.0077
▁valentía	-10.0077
▁vuelva	-10.0077
▁agradable	-10.0077
▁afterwards	-10.0077
▁money	-10.0077
▁temper	-10.0077
▁juramento	-10.0077
▁slight	-10.0077
▁estuviese	-10.0078
▁barca	-10.0078
▁recibió	-10.0079
▁amiga	-10.0079
To	-10.0079
▁admir	-10.0081
▁oyendo	-10.0084
▁fall	-10.0085
▁forward	-10.0086
▁luna	-10.0086
▁rica	-10.0087
▁hice	-10.009
▁cualquiera	-10.0102
▁echó	-10.0102
▁pasos	-10.0107
▁determined	-10.0109
▁inter	-10.011
▁delight	-10.0115
▁Cat	-10.0125
▁precio	-10.0133
▁llevaban	-10.0138
▁Mi	-10.0152
▁ganado	-10.0163
▁blanca	-10.0167
▁tira	-10.0169
▁Ten	-10.0173
read	-10.0187
▁pasados	-10.021
▁liked	-10.0216
▁desea	-10.0245
▁arte	-10.0247
Ha	-10.0249
not	-10.026
we	-10.0263
▁locuras	-10.0267
▁limpia	-10.0268
of	-10.0271
▁noble	-10.0345
▁dejaba	-10.0353
▁cualquier	-10.0354
▁low	-10.0355
▁please	-10.0355
▁color	-10.0366
▁equal	-10.0368
▁agradec	-10.0369
▁respond	-10.0378
▁alforjas	-10.038
▁ejemplo	-10.038
▁hiciera	-10.038
▁número	-10.038
▁public	-10.038
▁refranes	-10.038
▁sospecha	-10.038
▁length	-10.038
▁malicia	-10.038
▁already	-10.038
▁naturaleza	-10.038
▁proper	-10.0381
▁Gran	-10.0382
▁pareciéndole	-10.0383
▁descubrir	-10.0384
▁Fue	-10.0387
▁five	-10.039
▁verás	-10.0391
▁viva	-10.0391
▁followed	-10.0397
▁parecen	-10.0399
▁reply	-10.0399
▁happened	-10.04
▁ocupa	-10.0401
▁caminar	-10.0406
cup	-10.0421
ible	-10.0433
▁caminos	-10.0435
▁hacerse	-10.0439
▁acometer	-10.0439
▁pregunt	-10.0443
▁sirvi	-10.0451
▁ponerse	-10.0475
▁esos	-10.0477
▁week	-10.0478
▁ponía	-10.0485
''	-10.049
▁year	-10.0495
▁gentes	-10.0498
▁estamos	-10.05
▁lament	-10.0508
▁procur	-10.052
.»	-10.0541
▁imagine	-10.0586
▁seems	-10.0588
▁niece	-10.0588
▁veía	-10.0596
▁escu	-10.0601
▁law	-10.0602
Ay	-10.0606
ake	-10.0613
▁hallaba	-10.0624
all	-10.0637
▁happen	-10.0671
ejas	-10.0686
▁afrenta	-10.0692
▁aprovecha	-10.0692
▁arrival	-10.0692
▁consequence	-10.0692
▁easily	-10.0692
▁engagement	-10.0692
▁espanto	-10.0692
▁humilde	-10.0692
▁necessary	-10.0692
▁revés	-10.0692
▁siquiera	-10.0692
▁empresa	-10.0692
▁rogó	-10.0692
▁cuerdo	-10.0692
▁several	-10.0692
▁sujeto	-10.0692
▁bosque	-10.0692
▁ajena	-10.0693
▁volviéndose	-10.0693
▁ancas	-10.0694
▁queréis	-10.0696
▁begin	-10.0696
▁defender	-10.0696
▁estudiante	-10.0697
▁caña	-10.0697
▁villano	-10.0698
▁appearance	-10.0698
▁doing	-10.07
▁early	-10.0701
▁hablando	-10.0701
▁notice	-10.0702
▁abraz	-10.0707
▁perdido	-10.0714
▁recib	-10.0715
▁obliged	-10.0716
▁mandado	-10.0717
▁tratar	-10.0719
▁impertinente	-10.0721
▁honesta	-10.0723
▁principales	-10.0725
▁Este	-10.0728
▁ley	-10.0733
▁jurar	-10.0737
illas	-10.074
▁seem	-10.0744
▁Oh	-10.0763
ué	-10.0767
▁pas	-10.0767
▁decirse	-10.0771
▁sano	-10.0772
▁riendas	-10.0784
▁gracia	-10.0807
▁acudir	-10.0808
▁hacerle	-10.0811
▁engañ	-10.0821
▁mula	-10.0824
▁vo	-10.0841
cientos	-10.0844
▁send	-10.0852
▁daban	-10.0853
▁thinking	-10.0856
rida	-10.0862
▁cola	-10.0881
▁decirle	-10.0891
ff	-10.0928
rán	-10.0954
what	-10.0955
where	-10.0955
Por	-10.0961
▁correspond	-10.0964
Ah	-10.0964
▁verle	-10.0984
▁derrib	-10.1001
J	-10.1009
▁dará	-10.1009
hapter	-10.1015
▁Francia	-10.1015
▁Maritornes	-10.1015
▁crédito	-10.1015
▁felice	-10.1015
▁further	-10.1015
▁necesario	-10.1015
▁sosiego	-10.1015
▁último	-10.1015
▁doctor	-10.1015
▁sensible	-10.1015
▁tío	-10.1015
▁traído	-10.1015
▁soledad	-10.1015
▁suceder	-10.1015
▁conoció	-10.1015
▁acerca	-10.1015
▁court	-10.1015
▁debió	-10.1016
▁mostró	-10.1017
▁prometido	-10.1017
▁bacía	-10.1017
▁salieron	-10.1018
▁alarm	-10.1018
▁dejase	-10.1018
▁tonto	-10.1019
▁Viendo	-10.102
▁capítulo	-10.1021
▁fecho	-10.1021
▁resolved	-10.1024
▁pon	-10.1025
▁determinado	-10.1025
▁partida	-10.1025
▁pusiese	-10.1026
▁hallé	-10.1029
▁sitting	-10.103
▁Hare	-10.1031
▁joined	-10.1038
▁Let	-10.1039
▁mentioned	-10.104
▁tuve	-10.1045
▁tomado	-10.1047
▁walking	-10.1055
H	-10.1061
aste	-10.1061
▁dejaron	-10.1064
▁hallo	-10.1075
▁pláticas	-10.1076
▁“_	-10.1082
có	-10.1085
▁quitó	-10.1086
▁caza	-10.1094
org	-10.1094
▁suspiros	-10.1103
▁meant	-10.1112
▁príncipes	-10.1124
▁h	-10.1129
▁Mu	-10.1163
▁guard	-10.1169
▁somos	-10.1188
▁pagado	-10.1197
▁andado	-10.1202
▁burlas	-10.1205
▁roga	-10.1241
▁dellas	-10.1261
rca	-10.1279
▁hours	-10.1296
bid	-10.1303
▁mandar	-10.1305
ante	-10.1324
▁escucha	-10.1326
▁espanta	-10.1347
▁Austen	-10.1348
▁License	-10.1348
▁Lorenzo	-10.1348
▁Trifaldi	-10.1348
▁antiguo	-10.1348
▁camisa	-10.1348
▁countenance	-10.1348
▁entiende	-10.1348
▁entirely	-10.1348
▁estómago	-10.1348
▁kept	-10.1348
▁neighbourhood	-10.1348
▁penitencia	-10.1348
▁pequeña	-10.1348
▁recebido	-10.1348
▁satisfecho	-10.1348
▁society	-10.1348
▁vizcaíno	-10.1348
▁window	-10.1348
▁choose	-10.1348
▁dulce	-10.1348
▁forzoso	-10.1348
▁easy	-10.1348
▁ventera	-10.1348
▁humana	-10.1348
▁propio	-10.1348
▁estancia	-10.1348
▁garden	-10.1348
▁fancy	-10.1348
▁report	-10.1349
▁effect	-10.1349
drew	-10.1349
▁parecido	-10.1349
▁calidad	-10.135
▁objection	-10.1351
▁sentimiento	-10.1352
▁También	-10.1357
".	-10.1363
▁won	-10.1365
your	-10.1366
▁fuente	-10.1369
▁diferentes	-10.141
▁respondía	-10.1412
alla	-10.1412
ábase	-10.1446
ería	-10.145
▁cap	-10.1475
▁camina	-10.1486
▁rogar	-10.1486
▁perro	-10.1504
▁Ella	-10.1506
iéndole	-10.1528
▁mulas	-10.1577
▁hinc	-10.1579
▁soldados	-10.1594
▁laws	-10.1597
▁dejé	-10.16
ándola	-10.1607
age	-10.1609
▁bear	-10.1623
Why	-10.1631
just	-10.1634
She	-10.164
▁vuelve	-10.1648
▁vas	-10.1663
▁mora	-10.1672
▁flor	-10.1681
▁perfect	-10.1682
▁perform	-10.1692
▁libra	-10.1692
▁Grisóstomo	-10.1693
▁astonishment	-10.1693
▁blanda	-10.1693
▁compadre	-10.1693
▁disposition	-10.1693
▁espíritu	-10.1693
▁infierno	-10.1693
▁palacio	-10.1693
▁sabido	-10.1693
▁writing	-10.1693
▁ánima	-10.1693
▁Mouse	-10.1693
▁servant	-10.1693
▁check	-10.1693
▁profesa	-10.1693
▁aliento	-10.1693
▁ofreció	-10.1693
▁thus	-10.1693
▁discover	-10.1693
▁regala	-10.1693
▁bajel	-10.1693
▁enojo	-10.1694
▁determinación	-10.1694
▁truth	-10.1694
▁anybody	-10.1695
▁gasta	-10.1696
▁diere	-10.1696
▁saliese	-10.1696
▁cuentan	-10.1698
▁famosos	-10.1698
▁peña	-10.1699
▁kindness	-10.1701
▁getting	-10.1704
▁atento	-10.1707
▁sign	-10.1707
▁whatever	-10.1711
▁entraron	-10.1721
▁acabado	-10.1722
▁conduct	-10.1723
▁duro	-10.1729
▁verdaderas	-10.1736
▁aquélla	-10.1743
▁forth	-10.1764
▁gigantes	-10.1774
▁hombros	-10.178
▁volvía	-10.1787
▁detener	-10.179
enza	-10.1793
▁Be	-10.1796
▁conced	-10.1799
▁pecador	-10.1809
▁Te	-10.1811
▁junta	-10.1821
▁circumstances	-10.1833
▁llena	-10.1837
▁suspenso	-10.1837
▁solos	-10.1852
▁deep	-10.1854
▁post	-10.1883
▁conocía	-10.1884
▁Para	-10.1887
▁admire	-10.1887
▁knowing	-10.1923
▁éstas	-10.1925
▁divid	-10.1951
▁Your	-10.1954
▁pelea	-10.1962
dri	-10.1979
We	-10.2002
▁Qui	-10.2003
▁pastora	-10.2034
▁learn	-10.2035
▁anxious	-10.2038
▁favour	-10.2048
▁Caterpillar	-10.205
▁Espejos	-10.205
▁Marcela	-10.205
▁Oyendo	-10.205
▁Tosilos	-10.205
▁absence	-10.205
▁affair	-10.205
▁arriero	-10.205
▁beauty	-10.205
▁conviene	-10.205
▁curiosity	-10.205
▁demonio	-10.205
▁infanta	-10.205
▁ordinario	-10.205
▁recommend	-10.205
▁retablo	-10.205
▁testigo	-10.205
▁trouble	-10.205
▁vestida	-10.205
▁vosotros	-10.205
▁breakfast	-10.205
▁chief	-10.205
▁especially	-10.205
▁giving	-10.205
▁lacayo	-10.205
▁muerta	-10.205
▁narices	-10.205
▁barco	-10.205
▁beginning	-10.205
▁vencedor	-10.205
▁segura	-10.205
▁fiesta	-10.205
▁tendrá	-10.205
▁satisfaction	-10.205
▁attachment	-10.2051
▁ciencia	-10.2052
▁delightful	-10.2052
▁siete	-10.2052
▁copie	-10.2054
▁fair	-10.2055
▁términos	-10.2056
▁share	-10.2056
▁suddenly	-10.2057
▁tendido	-10.2059
▁directly	-10.2059
ww	-10.2062
▁observed	-10.2063
▁cabe	-10.2063
▁despedi	-10.2064
▁bellaco	-10.2065
▁desire	-10.2066
▁highly	-10.2066
▁limpio	-10.2075
▁ready	-10.2075
▁opened	-10.2077
▁LI	-10.208
▁entrada	-10.2083
▁ayudar	-10.2086
▁assured	-10.2088
▁prudente	-10.2099
▁poetas	-10.2111
▁hearing	-10.2112
▁responde	-10.2122
▁canta	-10.2127
▁creature	-10.2157
año	-10.2161
▁solas	-10.2168
▁quedan	-10.2169
▁ignorante	-10.2176
▁usa	-10.2181
▁promesas	-10.2188
▁bra	-10.2198
▁semejante	-10.2211
ciones	-10.2214
▁cara	-10.2216
▁escudo	-10.2228
▁vara	-10.2232
▁malo	-10.2233
▁admirar	-10.2271
▁Co	-10.23
▁acomet	-10.2302
▁enseñ	-10.231
▁talle	-10.2345
▁puertas	-10.2347
▁cena	-10.235
▁llegase	-10.2353
nme	-10.2372
There	-10.2376
▁follow	-10.2381
▁carnes	-10.2389
áronle	-10.2392
▁juzga	-10.2395
▁árbol	-10.2407
▁acontec	-10.2415
▁admit	-10.2419
utenberg	-10.2419
▁behind	-10.242
▁castellano	-10.242
▁cubierto	-10.242
▁descuido	-10.242
▁díjole	-10.242
▁exceedingly	-10.242
▁nature	-10.242
▁pensó	-10.242
▁romance	-10.242
▁tampoco	-10.242
▁treinta	-10.242
▁cuchilla	-10.242
▁deshonra	-10.242
▁encierra	-10.242
▁purpose	-10.242
▁evident	-10.242
▁perdón	-10.242
▁pretty	-10.242
▁common	-10.242
▁spite	-10.242
▁caída	-10.242
▁suffer	-10.242
▁cuesta	-10.2421
▁conforme	-10.2421
▁digno	-10.2421
▁dislike	-10.2421
▁regiment	-10.2421
▁llegue	-10.2421
▁error	-10.2422
▁sierra	-10.2422
▁comenzaron	-10.2426
▁despecho	-10.2426
:--	-10.2428
▁vicio	-10.2428
▁sight	-10.2432
▁eat	-10.2433
▁salga	-10.2434
▁determinó	-10.2435
▁vendrá	-10.2437
▁puro	-10.2449
▁expressed	-10.2452
Mr	-10.2453
▁allowed	-10.2454
dio	-10.2458
▁sentado	-10.246
▁younger	-10.246
▁pecado	-10.2464
▁pay	-10.2464
▁Tra	-10.247
▁greater	-10.2476
▁miente	-10.2478
▁wanted	-10.2482
▁considered	-10.2495
▁ruin	-10.2508
▁event	-10.2511
▁encanto	-10.2513
▁conde	-10.2525
▁honrada	-10.2528
ensa	-10.2531
▁llevan	-10.2533
▁calle	-10.2538
iéndo	-10.2542
▁acertar	-10.2546
vid	-10.2585
llos	-10.2589
▁breve	-10.2594
▁lugares	-10.2595
▁eye	-10.2596
▁quisieres	-10.26
▁mor	-10.2603
▁Head	-10.2632
▁remediar	-10.2651
cy	-10.2654
bieron	-10.2701
▁cuyas	-10.2712
▁andaban	-10.2746
stes	-10.2763
▁esperanzas	-10.2787
dándose	-10.2787
▁puedes	-10.2801
▁child	-10.2805
▁Gaula	-10.2805
▁Merlín	-10.2805
▁curious	-10.2805
▁including	-10.2805
▁mentecato	-10.2805
▁música	-10.2805
▁original	-10.2805
▁pensativo	-10.2805
▁pleasing	-10.2805
▁pluma	-10.2805
▁praise	-10.2805
▁suplico	-10.2805
▁tercera	-10.2805
▁hurry	-10.2805
▁ladrón	-10.2805
▁regret	-10.2805
▁scheme	-10.2805
▁success	-10.2805
▁carrera	-10.2805
▁cadena	-10.2805
▁during	-10.2805
▁comodidad	-10.2805
▁self	-10.2805
▁río	-10.2805
▁cuantas	-10.2806
▁traidor	-10.2806
▁library	-10.2806
cogió	-10.2806
▁probar	-10.2807
▁living	-10.2807
▁admiration	-10.2808
▁chose	-10.2808
▁Tú	-10.281
▁viniere	-10.281
▁viéndose	-10.2811
adura	-10.2812
▁debo	-10.2812
▁desnudo	-10.2813
ind	-10.2815
▁volvie	-10.2816
▁remained	-10.2821
▁meeting	-10.2833
▁escuch	-10.2835
▁infinita	-10.2835
▁pintado	-10.2844
▁aviso	-10.2846
▁card	-10.2854
itos	-10.2856
▁desear	-10.2862
▁supposed	-10.2865
▁pause	-10.2867
▁valle	-10.2892
zando	-10.29
▁enviar	-10.2905
Your	-10.2914
▁pelo	-10.2917
▁piernas	-10.2919
▁canto	-10.2929
▁cas	-10.2929
▁That	-10.2932
▁Had	-10.2941
▁pinta	-10.2948
▁casar	-10.2957
▁asió	-10.2967
▁nuevos	-10.2971
▁entera	-10.2971
▁faltaba	-10.2981
▁attentions	-10.2989
▁piedra	-10.2991
▁legua	-10.2994
▁apartar	-10.2994
▁ínsulas	-10.3005
▁none	-10.3005
▁admirados	-10.3007
stos	-10.3008
▁reinos	-10.3015
So	-10.3032
▁verg	-10.3033
▁señoría	-10.3051
▁aguas	-10.3055
▁llev	-10.3076
▁lleve	-10.3085
▁siguie	-10.3122
▁hacerme	-10.3124
▁altos	-10.3155
side	-10.3159
▁listen	-10.3171
▁cartas	-10.3171
▁Tu	-10.3181
mando	-10.3184
ug	-10.3184
▁serious	-10.3193
▁free	-10.3193
▁hard	-10.3202
▁civil	-10.3203
▁Derbyshire	-10.3205
▁Gregorio	-10.3205
▁Majestad	-10.3205
▁atrevimiento	-10.3205
▁beautiful	-10.3205
▁diferencia	-10.3205
▁dígame	-10.3205
▁knowledge	-10.3205
▁maestresala	-10.3205
▁pounds	-10.3205
▁probably	-10.3205
▁profundo	-10.3205
▁prueba	-10.3205
▁pudiere	-10.3205
▁itself	-10.3205
▁tendré	-10.3205
▁jury	-10.3205
▁match	-10.3205
▁patria	-10.3205
▁dancing	-10.3205
▁degree	-10.3205
▁estrecha	-10.3205
▁fact	-10.3205
▁hastily	-10.3205
▁rigor	-10.3205
▁trecho	-10.3205
▁favourite	-10.3205
▁latter	-10.3205
▁proceed	-10.3205
▁sentence	-10.3205
▁hierro	-10.3205
▁intento	-10.3205
▁chance	-10.3205
▁proud	-10.3205
▁limit	-10.3205
▁propia	-10.3205
▁wholly	-10.3205
▁above	-10.3205
▁motive	-10.3205
▁llegándose	-10.3206
▁direction	-10.3206
▁furia	-10.3206
▁tuyo	-10.3207
▁sake	-10.3207
▁affectionate	-10.3207
▁vía	-10.3207
▁paño	-10.3207
▁entretener	-10.3208
▁duerme	-10.3208
▁expectation	-10.3209
▁palma	-10.3209
▁ingenioso	-10.3213
▁marked	-10.3214
▁trust	-10.3214
▁attended	-10.3215
▁visitor	-10.3215
▁presta	-10.3226
▁entrado	-10.3227
▁menor	-10.3227
▁worth	-10.3231
▁delighted	-10.3234
mento	-10.3236
▁turning	-10.3236
▁rato	-10.3237
▁desencanto	-10.3238
▁parezca	-10.3238
▁echado	-10.3242
▁quitado	-10.3252
▁prenda	-10.326
▁dijere	-10.3267
▁tarda	-10.327
▁turcos	-10.3271
▁thoughts	-10.3273
▁dine	-10.3278
ming	-10.3284
▁malas	-10.3287
▁aparte	-10.3287
▁dijera	-10.3297
▁relations	-10.3298
▁gobernadores	-10.33
▁usan	-10.3303
▁rostros	-10.3304
▁instrumento	-10.3307
▁unless	-10.3311
▁procurar	-10.3322
▁valientes	-10.3327
▁irse	-10.336
▁ido	-10.3386
▁sac	-10.3401
▁eBook	-10.3408
▁i	-10.3417
▁admirado	-10.3418
zó	-10.3438
▁tr	-10.3439
▁verla	-10.3447
▁fatiga	-10.3449
up	-10.346
▁Mal	-10.3464
▁ricos	-10.347
▁altas	-10.3477
▁verme	-10.3482
rar	-10.3485
▁obliga	-10.3503
rez	-10.3504
▁amar	-10.3505
▁continua	-10.3526
▁diablos	-10.3531
▁apart	-10.3538
ary	-10.354
guarda	-10.3554
ped	-10.3555
▁nombres	-10.3561
This	-10.3562
▁sustenta	-10.3571
▁Del	-10.3574
▁desencant	-10.3588
▁watch	-10.3602
▁mire	-10.3605
▁act	-10.3611
▁try	-10.3613
IT	-10.3619
▁consejos	-10.3621
▁Brighton	-10.3622
▁Hunsford	-10.3622
▁Iglesia	-10.3622
▁Section	-10.3622
▁abierto	-10.3622
▁alborota	-10.3622
▁apriesa	-10.3622
▁arrojó	-10.3622
▁companion	-10.3622
▁comprehend	-10.3622
▁desenvoltura	-10.3622
▁effort	-10.3622
▁embuste	-10.3622
▁future	-10.3622
▁gallardo	-10.3622
▁inquiries	-10.3622
▁journey	-10.3622
▁ligereza	-10.3622
▁misericordia	-10.3622
▁refund	-10.3622
▁throw	-10.3622
▁company	-10.3622
▁distance	-10.3622
▁importancia	-10.3622
▁picture	-10.3622
▁bronce	-10.3622
▁tendría	-10.3622
▁wrote	-10.3622
▁falsa	-10.3622
▁removed	-10.3622
▁traigo	-10.3622
Vála	-10.3622
▁invención	-10.3622
▁clear	-10.3622
▁atención	-10.3622
▁infinitos	-10.3622
▁sitio	-10.3622
▁avoid	-10.3622
▁firma	-10.3622
▁mortal	-10.3622
▁regalo	-10.3622
▁espero	-10.3622
▁corral	-10.3622
▁permission	-10.3622
▁cold	-10.3623
▁ground	-10.3623
▁harto	-10.3623
▁nací	-10.3623
▁cuita	-10.3623
▁acquainted	-10.3624
▁alegría	-10.3625
ásemos	-10.3626
▁dándole	-10.3626
▁subió	-10.3627
▁nace	-10.3627
▁tenéis	-10.3628
▁amorosa	-10.3628
▁entendido	-10.3628
▁acertado	-10.3629
▁ropa	-10.3629
▁trance	-10.3629
▁talante	-10.363
▁gozar	-10.363
▁pobreza	-10.3633
▁taste	-10.364
time	-10.3641
▁caminante	-10.3641
▁partir	-10.3643
▁mistaken	-10.3647
▁cuánto	-10.3651
▁persuaded	-10.3653
▁molino	-10.3661
▁alter	-10.3664
▁bajo	-10.3664
▁pocas	-10.3666
▁generally	-10.3675
▁ordenó	-10.3676
▁daría	-10.3697
▁sustentar	-10.3698
▁persuadir	-10.371
▁ponerme	-10.371
▁entendió	-10.3715
▁addition	-10.3731
ently	-10.3732
▁tru	-10.3754
▁Ven	-10.3755
▁alabanzas	-10.3755
▁cuadrilleros	-10.3755
▁peso	-10.3758
ke	-10.3785
my	-10.3788
▁traían	-10.3791
▁peligros	-10.3792
▁compañeros	-10.3793
out	-10.3803
izo	-10.3825
rí	-10.3831
ándome	-10.3855
▁breves	-10.3855
▁fast	-10.3862
▁palo	-10.3896
▁vend	-10.3929
iér	-10.3935
icio	-10.3937
tón	-10.3956
▁desmay	-10.3972
▁estate	-10.3973
ches	-10.3983
They	-10.4019
▁pesa	-10.4026
▁fond	-10.4038
▁gusta	-10.4045
very	-10.4047
▁abrió	-10.4056
▁además	-10.4056
▁assurance	-10.4056
▁celebra	-10.4056
▁conocimiento	-10.4056
▁hurried	-10.4056
▁lienzo	-10.4056
▁máquina	-10.4056
▁neighbour	-10.4056
▁nephew	-10.4056
▁superior	-10.4056
▁support	-10.4056
▁visorrey	-10.4056
▁abrir	-10.4056
▁fortnight	-10.4056
▁guia	-10.4057
▁cantidad	-10.4057
▁envidia	-10.4057
▁health	-10.4057
▁humano	-10.4057
▁tuerto	-10.4057
▁stru	-10.4057
▁confess	-10.4057
▁habido	-10.4057
▁gratitude	-10.4057
▁convenía	-10.4057
▁receiving	-10.4057
▁uña	-10.4057
▁sintió	-10.4057
▁estuviera	-10.4057
▁step	-10.4057
▁conceal	-10.4057
▁gato	-10.4057
▁escusar	-10.4057
▁acabe	-10.4057
▁''¡	-10.4058
▁arremetió	-10.4058
▁sobra	-10.4059
▁miró	-10.4059
▁tax	-10.406
▁inclination	-10.4061
▁sirva	-10.4061
▁viéndole	-10.4062
▁juntamente	-10.4062
▁manage	-10.4062
▁gala	-10.4062
▁favorecer	-10.4062
▁murmura	-10.4062
▁docena	-10.4063
▁frequently	-10.4063
▁teniendo	-10.4065
▁venida	-10.4065
▁dijeron	-10.4066
▁sentir	-10.4067
▁finished	-10.4067
▁movido	-10.4067
▁consent	-10.4068
▁bow	-10.4069
▁olor	-10.4071
▁bring	-10.4072
▁milagro	-10.4074
▁drawing	-10.4075
▁prevented	-10.4076
?''	-10.408
▁ventaja	-10.4085
▁accepted	-10.4091
▁honesto	-10.4092
▁pobres	-10.4094
▁compar	-10.4095
▁marrying	-10.4095
▁engañado	-10.4096
iéronse	-10.4104
mbre	-10.4106
▁quise	-10.4108
ught	-10.4123
zón	-10.4125
▁criada	-10.4127
▁ear	-10.4132
▁humor	-10.4132
▁dime	-10.4144
▁yendo	-10.4152
iva	-10.4158
▁torre	-10.4161
▁encantados	-10.4169
▁animal	-10.4176
▁ponerle	-10.419
añadió	-10.4222
▁tak	-10.4244
▁parecían	-10.4251
▁acompañar	-10.4279
▁forget	-10.4281
▁bella	-10.4316
antes	-10.4326
▁solía	-10.4335
▁blancas	-10.4372
▁golpes	-10.4392
▁corri	-10.4397
ento	-10.4419
▁pechos	-10.4423
▁secret	-10.4425
ably	-10.4428
fri	-10.4442
▁avis	-10.4451
will	-10.4451
▁parecerle	-10.446
▁cobrar	-10.4461
▁nombr	-10.4466
fo	-10.4471
▁vive	-10.4488
▁distress	-10.449
▁draw	-10.4492
▁desgracias	-10.4492
▁guarde	-10.45
▁flatter	-10.4511
Perhaps	-10.4511
▁Excelencia	-10.4511
▁Hízolo	-10.4511
▁Roldán	-10.4511
▁White	-10.4511
▁dádiva	-10.4511
▁ejecución	-10.4511
▁escrita	-10.4511
▁estrecheza	-10.4511
▁intention	-10.4511
▁jornada	-10.4511
▁llamó	-10.4511
▁lástima	-10.4511
▁proposal	-10.4511
▁referida	-10.4511
▁refrán	-10.4511
▁república	-10.4511
▁speech	-10.4511
▁vencimiento	-10.4511
▁welcome	-10.4511
▁whisper	-10.4511
▁women	-10.4511
▁zapato	-10.4511
▁THE	-10.4511
▁escondido	-10.4511
▁evil	-10.4511
▁patio	-10.4511
▁intended	-10.4511
▁Sólo	-10.4511
▁instead	-10.4511
▁premio	-10.4511
▁recato	-10.4511
▁angry	-10.4511
▁treat	-10.4511
▁deserve	-10.4511
▁ofrecía	-10.4511
▁guía	-10.4511
▁habit	-10.4511
▁dress	-10.4511
▁partner	-10.4511
iéronle	-10.4511
▁mostrado	-10.4511
▁falda	-10.4511
▁temerosa	-10.4512
▁podéis	-10.4512
▁game	-10.4512
▁Sea	-10.4513
▁obtain	-10.4513
▁soneto	-10.4513
▁However	-10.4513
▁vinieron	-10.4513
▁quince	-10.4515
▁salvo	-10.4516
▁ayer	-10.4516
▁poderoso	-10.4516
▁castigar	-10.4516
▁Long	-10.4516
▁spent	-10.4517
▁ajeno	-10.4518
▁encina	-10.4518
▁eagerly	-10.4519
▁Eliza	-10.4519
▁fixed	-10.4519
▁Da	-10.452
▁desdichada	-10.4521
▁LA	-10.4522
▁salario	-10.4522
▁importance	-10.4523
▁escuchando	-10.4524
▁huir	-10.4524
▁decided	-10.4526
▁Mire	-10.4526
▁pude	-10.4527
▁add	-10.4531
▁llevo	-10.4531
▁promised	-10.4534
▁listened	-10.4535
▁papeles	-10.4536
our	-10.4541
▁interesting	-10.4543
▁invent	-10.4544
▁nearly	-10.4549
▁sacado	-10.455
▁daga	-10.4555
▁meaning	-10.4563
▁estorb	-10.4568
▁acabada	-10.4584
▁line	-10.4586
▁estáis	-10.4601
Not	-10.4604
▁meses	-10.4607
▁sigue	-10.4633
▁entend	-10.4639
▁escuchar	-10.4639
▁abrazar	-10.4642
▁riquezas	-10.4647
Si	-10.4653
▁leones	-10.4655
▁cabras	-10.4658
▁yerbas	-10.4698
table	-10.4703
dónde	-10.4733
▁introduce	-10.4752
▁vain	-10.4753
▁hablaba	-10.4764
▁Of	-10.4775
▁aconsej	-10.4779
▁borra	-10.4783
▁haberse	-10.4792
▁discretos	-10.4803
▁pretend	-10.482
▁levantado	-10.482
ndido	-10.487
▁bit	-10.4877
▁confirma	-10.4893
▁atado	-10.4894
▁mag	-10.4894
▁mirado	-10.4895
▁pal	-10.4897
eces	-10.49
▁holgar	-10.4907
iésemos	-10.4909
humour	-10.4925
▁bad	-10.4926
Come	-10.4936
▁hurt	-10.4939
ability	-10.4945
▁wait	-10.4947
▁infini	-10.495
▁despi	-10.496
▁prevent	-10.4966
ook	-10.4968
▁milagros	-10.4975
▁hold	-10.4979
▁quiet	-10.4983
aragoza	-10.4987
▁Blanca	-10.4987
▁Hermandad	-10.4987
▁Sanchica	-10.4987
▁antigua	-10.4987
▁associated	-10.4987
▁caballeriza	-10.4987
▁confusión	-10.4987
▁distributing	-10.4987
▁dreadful	-10.4987
▁ejército	-10.4987
▁estilo	-10.4987
▁fantasma	-10.4987
▁fraile	-10.4987
▁otherwise	-10.4987
▁perjuicio	-10.4987
▁referido	-10.4987
▁sabrá	-10.4987
▁stood	-10.4987
▁wood	-10.4987
▁labios	-10.4987
▁pensado	-10.4987
▁simplicidad	-10.4987
▁summer	-10.4987
shire	-10.4987
▁colour	-10.4987
▁mármol	-10.4987
▁adarga	-10.4987
▁temiendo	-10.4987
▁trigo	-10.4987
▁cayó	-10.4987
▁Sierra	-10.4987
▁jaez	-10.4987
▁Clara	-10.4987
▁located	-10.4987
▁defensa	-10.4987
morrow	-10.4987
▁sound	-10.4987
▁tabla	-10.4987
▁apreta	-10.4988
▁complete	-10.4988
▁tesoro	-10.4988
▁recover	-10.4988
▁llano	-10.4988
▁sufrir	-10.4988
▁suave	-10.4988
▁foot	-10.4988
▁along	-10.4989
▁Apen	-10.4989
▁prometida	-10.4989
▁violent	-10.4989
Indeed	-10.499
▁eldest	-10.499
▁quick	-10.4991
▁reír	-10.4991
▁cerrar	-10.4992
▁escribió	-10.4993
▁galeotes	-10.4994
▁comida	-10.4996
▁siguiente	-10.4996
▁tristeza	-10.4997
▁greatest	-10.4998
▁order	-10.4998
▁Calla	-10.5
▁charming	-10.5001
▁comido	-10.5001
▁sosegado	-10.5002
▁comply	-10.5004
▁vengar	-10.501
▁arroja	-10.5015
▁age	-10.502
▁understanding	-10.5023
▁veréis	-10.5025
▁nobody	-10.503
▁fun	-10.5032
▁romp	-10.5034
▁mate	-10.5046
▁ofrecimientos	-10.5056
▁ph	-10.5057
▁Per	-10.5058
▁mur	-10.5059
▁Why	-10.5073
▁novela	-10.5076
▁continu	-10.5079
▁quedará	-10.508
CH	-10.5087
▁months	-10.5098
cal	-10.5099
▁Gu	-10.5116
some	-10.5118
▁alzar	-10.5129
cudieron	-10.5129
▁rara	-10.5146
▁casado	-10.5147
▁using	-10.515
▁important	-10.5171
ugh	-10.5174
▁serán	-10.5175
▁adónde	-10.5183
▁tocaba	-10.5185
▁hoped	-10.5187
▁sentencias	-10.5195
▁cantar	-10.5203
▁moral	-10.5226
▁entero	-10.5235
▁justas	-10.5236
▁eBooks	-10.5238
▁debían	-10.5239
ical	-10.5239
▁acomodar	-10.524
IN	-10.5249
▁connection	-10.5273
▁ruego	-10.5273
▁montaña	-10.5274
▁sentencia	-10.5276
▁suspensos	-10.5281
▁cru	-10.5295
▁calles	-10.5301
▁Ab	-10.5325
▁pin	-10.5325
▁Not	-10.536
▁hayan	-10.5375
▁jura	-10.542
When	-10.5427
▁discretas	-10.5433
▁remain	-10.5451
▁callar	-10.5451
▁promise	-10.5462
▁despert	-10.5463
▁fan	-10.5463
▁repar	-10.5465
▁repeat	-10.5466
ould	-10.547
▁miraba	-10.5472
▁immediate	-10.5475
▁estudia	-10.548
▁quedase	-10.548
OU	-10.5486
his	-10.5487
▁arroyo	-10.5487
▁expense	-10.5487
twenty	-10.5487
▁Argel	-10.5487
▁Miguel	-10.5487
▁atraves	-10.5487
▁coloquio	-10.5487
▁confusion	-10.5487
▁contigo	-10.5487
▁entretenimiento	-10.5487
▁excellent	-10.5487
▁fortaleza	-10.5487
▁number	-10.5487
▁prudencia	-10.5487
▁sabré	-10.5487
▁suplica	-10.5487
▁vulgo	-10.5487
▁última	-10.5487
▁grateful	-10.5487
▁puerto	-10.5487
▁trecientos	-10.5487
▁wrong	-10.5487
▁period	-10.5487
▁story	-10.5487
▁contiene	-10.5487
▁forgotten	-10.5487
▁ligera	-10.5487
lvaro	-10.5487
▁confesar	-10.5487
▁request	-10.5487
▁blame	-10.5487
▁detrás	-10.5487
▁constant	-10.5487
▁mengua	-10.5487
▁scene	-10.5487
▁affected	-10.5487
▁espejo	-10.5487
▁impreso	-10.5487
▁saque	-10.5487
▁supiese	-10.5487
▁secure	-10.5488
▁pardon	-10.5488
▁anoche	-10.5488
▁danger	-10.5488
▁costillas	-10.5488
▁madam	-10.5488
▁recollection	-10.5488
▁hint	-10.5489
▁brevedad	-10.5489
▁conserv	-10.5489
▁forced	-10.5489
▁mandamiento	-10.5489
▁liberalidad	-10.549
▁Luna	-10.549
▁justa	-10.5491
▁consentir	-10.5492
▁Roma	-10.5493
▁descubrió	-10.5495
▁corría	-10.5496
▁desmayada	-10.5496
▁acknowledged	-10.5497
▁negar	-10.5498
▁tears	-10.5499
▁envía	-10.55
▁Maria	-10.5501
▁Estando	-10.5502
▁enamorada	-10.5504
▁negra	-10.5504
▁olvido	-10.5507
▁equally	-10.5507
▁trying	-10.551
▁ofrece	-10.5516
▁depart	-10.5516
▁juzgar	-10.5521
▁Ro	-10.5522
▁acomodado	-10.5523
Very	-10.5531
▁miraban	-10.5539
▁fea	-10.554
▁OR	-10.5541
▁smiled	-10.5541
▁vimos	-10.5543
ES	-10.5546
▁mad	-10.5546
▁escritos	-10.5554
▁puestas	-10.5559
▁feet	-10.556
▁hilo	-10.5562
▁cansado	-10.5563
▁reading	-10.5565
▁quedado	-10.5566
▁encerr	-10.557
▁niña	-10.5572
▁haz	-10.5574
▁acorda	-10.5574
▁desmayo	-10.5576
▁llamada	-10.5597
▁alab	-10.5614
▁maravill	-10.5615
▁pasase	-10.5623
▁diesen	-10.5628
▁acomod	-10.5658
ger	-10.5679
▁sabían	-10.5695
▁cenar	-10.5698
▁maravillas	-10.5736
▁burl	-10.5786
▁escape	-10.5792
cua	-10.5794
▁compañero	-10.5801
▁circumstance	-10.5801
▁yerba	-10.5806
ábamos	-10.5848
ading	-10.586
▁miles	-10.587
▁mentir	-10.5897
tendió	-10.5902
▁encontr	-10.5905
▁ojo	-10.5929
W	-10.5929
▁Un	-10.5946
tenido	-10.5957
▁cae	-10.5963
vino	-10.5964
decía	-10.5964
▁questions	-10.5969
ial	-10.5982
▁desesper	-10.5983
▁reach	-10.5993
▁requir	-10.5999
▁earnest	-10.6001
▁ordena	-10.6004
▁dilata	-10.6007
Yo	-10.6007
ECT	-10.6014
▁Benengeli	-10.6014
▁Claudia	-10.6014
▁Clavileño	-10.6014
▁Melisendra	-10.6014
▁Morena	-10.6014
▁Sevilla	-10.6014
▁While	-10.6014
▁acredit	-10.6014
▁arzobispo	-10.6014
▁averiguar	-10.6014
▁campaña	-10.6014
▁circunstantes	-10.6014
▁compuesto	-10.6014
▁disgust	-10.6014
▁durmiendo	-10.6014
▁encubrir	-10.6014
▁enfermedad	-10.6014
▁fermosa	-10.6014
▁hubiere	-10.6014
▁importun	-10.6014
▁improviso	-10.6014
▁intelligence	-10.6014
▁límite	-10.6014
▁miembro	-10.6014
▁mouth	-10.6014
▁nube	-10.6014
▁peregrino	-10.6014
▁persiguen	-10.6014
▁posesión	-10.6014
▁resolution	-10.6014
▁secretario	-10.6014
▁testamento	-10.6014
▁carreta	-10.6014
▁shock	-10.6014
▁choice	-10.6014
▁deshora	-10.6014
▁muelas	-10.6014
▁prevail	-10.6014
▁abismo	-10.6014
▁bendición	-10.6014
▁mientras	-10.6014
▁plain	-10.6014
▁tierna	-10.6014
▁cortesano	-10.6014
▁estrema	-10.6014
▁frío	-10.6014
▁menudo	-10.6014
▁puñada	-10.6014
▁indicio	-10.6014
▁ausente	-10.6014
▁brío	-10.6014
▁escribano	-10.6014
▁freno	-10.6014
▁Andrés	-10.6014
▁cerrada	-10.6014
▁acciones	-10.6014
▁leaving	-10.6014
▁disappointment	-10.6014
▁etc	-10.6014
▁arranc	-10.6014
▁desafío	-10.6014
▁atribu	-10.6014
▁rueda	-10.6015
▁resentment	-10.6015
▁piense	-10.6015
▁prometió	-10.6015
▁readily	-10.6016
▁wise	-10.6016
▁mode	-10.6016
▁adorno	-10.6016
▁ceremonias	-10.6017
▁poniendo	-10.6017
▁enoja	-10.6017
▁inquire	-10.6019
▁viuda	-10.602
▁servía	-10.602
▁fiel	-10.602
▁reasonable	-10.6022
▁offended	-10.6022
▁imaginaba	-10.6022
▁harta	-10.6023
▁consum	-10.6024
▁arma	-10.6024
▁Cuanto	-10.6026
▁persuade	-10.6027
▁nación	-10.603
▁size	-10.6031
▁soltar	-10.6034
▁reached	-10.6035
▁bi	-10.6037
▁light	-10.6039
▁paja	-10.6041
▁related	-10.6043
▁preso	-10.6049
▁addressed	-10.6053
▁virtudes	-10.6061
▁vais	-10.6066
▁autores	-10.6079
▁asking	-10.6101
▁holg	-10.6104
▁judge	-10.6106
Now	-10.6111
▁cueros	-10.6114
▁rebuzno	-10.6119
▁llevase	-10.6122
day	-10.6122
▁bestias	-10.6137
mine	-10.6137
onado	-10.6147
▁imita	-10.6148
▁contain	-10.6174
▁dejan	-10.6176
▁escribe	-10.6179
▁hubieran	-10.6199
▁tomase	-10.6219
▁estrellas	-10.622
▁cruz	-10.6222
▁Era	-10.6225
▁pudieran	-10.6238
▁tengan	-10.6242
▁connections	-10.6244
▁demanda	-10.6259
▁oreja	-10.6304
▁piedras	-10.6304
torio	-10.6304
▁art	-10.6308
raza	-10.6319
▁llenas	-10.634
▁estrella	-10.6355
▁promesa	-10.6357
▁describ	-10.6361
▁weeks	-10.6388
▁entrega	-10.6391
AD	-10.6392
zaba	-10.6392
▁Ve	-10.64
▁bat	-10.6402
▁hechas	-10.6426
▁imitar	-10.6427
▁encomend	-10.6432
▁desventuras	-10.6443
▁soga	-10.6453
▁novel	-10.6471
▁neg	-10.6498
hí	-10.6504
▁estimar	-10.6522
▁añad	-10.6539
▁explain	-10.6548
▁ganar	-10.6548
▁appl	-10.6557
Con	-10.6564
K	-10.6564
▁común	-10.6564
▁DON	-10.6569
▁Leandra	-10.6569
▁Malambruno	-10.6569
▁Nicolás	-10.6569
▁absolutely	-10.6569
▁anxiety	-10.6569
▁argument	-10.6569
▁ashamed	-10.6569
▁aventaja	-10.6569
▁añadidura	-10.6569
▁bálsamo	-10.6569
▁compuesta	-10.6569
▁comunica	-10.6569
▁continente	-10.6569
▁cubierta	-10.6569
▁descuida	-10.6569
▁escuadrón	-10.6569
▁explanation	-10.6569
▁extraordinary	-10.6569
▁facilit	-10.6569
▁felicity	-10.6569
▁garganta	-10.6569
▁molde	-10.6569
▁músico	-10.6569
▁proseguir	-10.6569
▁prospect	-10.6569
▁resucita	-10.6569
▁sentiment	-10.6569
▁succeed	-10.6569
▁yegua	-10.6569
▁Verdad	-10.6569
▁despojos	-10.6569
▁vestir	-10.6569
▁XXI	-10.6569
▁XXXI	-10.6569
▁contempt	-10.6569
▁ducados	-10.6569
▁license	-10.6569
▁plata	-10.6569
▁poesía	-10.6569
▁worse	-10.6569
▁curioso	-10.6569
▁manteles	-10.6569
▁alcalde	-10.6569
▁merecía	-10.6569
▁asiento	-10.6569
▁excuse	-10.6569
▁habría	-10.6569
▁parientes	-10.6569
▁razonamiento	-10.6569
▁atónito	-10.6569
▁spend	-10.6569
▁perdona	-10.6569
▁cross	-10.6569
▁terrible	-10.6569
▁vivía	-10.6569
▁distribution	-10.6569
▁----	-10.6569
▁observation	-10.657
▁become	-10.657
▁became	-10.657
▁temer	-10.657
▁Amor	-10.657
▁reflection	-10.657
▁lanzón	-10.657
▁puntualidad	-10.657
▁Respondió	-10.657
▁claim	-10.657
▁wide	-10.657
▁witness	-10.6571
▁imprimir	-10.6571
▁reposo	-10.6572
▁despach	-10.6572
▁weak	-10.6572
▁proced	-10.6573
▁levantándose	-10.6573
▁Como	-10.6573
▁capable	-10.6574
▁usanza	-10.6574
▁Nuestro	-10.6574
▁satisfacer	-10.6574
▁viere	-10.6575
▁aquéllos	-10.6577
▁habiéndol	-10.6577
▁necedades	-10.6577
▁dispar	-10.6577
▁Ja	-10.6578
▁romper	-10.6578
▁voto	-10.658
▁interrupted	-10.6581
▁derrama	-10.6583
▁park	-10.6584
▁traba	-10.6584
▁From	-10.6589
▁bodas	-10.6589
▁comenzado	-10.659
▁waiting	-10.6591
▁waited	-10.6594
▁estorbar	-10.6594
▁esteem	-10.6599
▁roto	-10.6599
▁desesperado	-10.6601
▁encerrado	-10.6601
▁trato	-10.6604
▁opening	-10.6608
▁fortunate	-10.6613
scribe	-10.6613
postura	-10.6614
▁inconveniente	-10.6624
▁concerned	-10.6628
▁corrido	-10.6631
▁dejará	-10.664
▁entertain	-10.6647
▁Tan	-10.6652
▁Mirad	-10.6662
▁rayos	-10.6675
tré	-10.6693
Their	-10.6708
▁huesos	-10.6725
▁herida	-10.673
▁gar	-10.6734
▁desdichas	-10.6739
Then	-10.675
▁mirad	-10.6768
certó	-10.6789
tting	-10.6801
iness	-10.6802
▁prepare	-10.6806
▁Come	-10.6807
ales	-10.6809
▁montañas	-10.6813
▁ruegos	-10.6813
▁pel	-10.682
▁laugh	-10.6821
Dijo	-10.6828
▁querían	-10.6828
▁sana	-10.6857
▁rate	-10.6862
by	-10.6882
▁valer	-10.6884
▁cansa	-10.6885
TH	-10.6886
▁perdi	-10.6888
▁pecados	-10.6892
▁pod	-10.6905
▁historiador	-10.6905
▁resist	-10.6912
▁saben	-10.6917
▁pass	-10.6941
▁vano	-10.6942
▁zagal	-10.6944
▁cla	-10.6957
▁ignorant	-10.696
▁rid	-10.6962
▁torc	-10.698
ED	-10.6985
ego	-10.6991
tender	-10.7011
▁promete	-10.7012
▁nice	-10.7016
▁olvida	-10.7031
▁declar	-10.7034
▁igualar	-10.7038
▁acordar	-10.7057
tiva	-10.711
▁sirve	-10.712
▁alegra	-10.7126
▁strange	-10.7127
▁Ana	-10.7134
ward	-10.7141
▁flores	-10.7143
▁sudden	-10.7146
▁difficult	-10.7148
▁suspend	-10.7149
▁stand	-10.7151
▁attach	-10.7156
▁defect	-10.7156
▁Barcelona	-10.7157
▁Berbería	-10.7157
▁Ginés	-10.7157
▁Mambrino	-10.7157
▁Micomicona	-10.7157
▁Paréceme	-10.7157
▁Saturday	-10.7157
▁Vicente	-10.7157
▁abundancia	-10.7157
▁acordó	-10.7157
▁advice	-10.7157
▁afford	-10.7157
▁alcornoque	-10.7157
▁aspereza	-10.7157
▁aventurero	-10.7157
▁castellana	-10.7157
▁cobarde	-10.7157
▁compasión	-10.7157
▁curiosidad	-10.7157
▁disgrace	-10.7157
▁entienda	-10.7157
▁estruendo	-10.7157
▁indifference	-10.7157
▁likewise	-10.7157
▁malandrines	-10.7157
▁necesaria	-10.7157
▁pasatiempo	-10.7157
▁pliego	-10.7157
▁politeness	-10.7157
▁reserve	-10.7157
▁seguridad	-10.7157
▁twice	-10.7157
▁upstairs	-10.7157
▁vuelvo	-10.7157
▁XLI	-10.7157
▁disculpa	-10.7157
▁ligero	-10.7157
▁maestro	-10.7157
▁muestre	-10.7157
▁pidiese	-10.7157
▁pondré	-10.7157
▁recebí	-10.7157
▁falso	-10.7157
▁redunda	-10.7157
▁Tomé	-10.7157
▁solemn	-10.7157
▁ahorca	-10.7157
▁running	-10.7157
▁unwilling	-10.7157
▁templa	-10.7157
▁componer	-10.7157
▁endereza	-10.7157
▁false	-10.7157
▁tuviere	-10.7157
▁protest	-10.7158
▁below	-10.7158
▁menesterosos	-10.7158
▁santos	-10.7158
▁recado	-10.7158
▁dining	-10.7158
▁entail	-10.7158
uthor	-10.7158
▁encaja	-10.7158
Will	-10.7158
▁tuya	-10.7159
▁Volvió	-10.7159
▁combat	-10.7159
cogiendo	-10.7159
▁seiscientos	-10.7159
▁podido	-10.716
▁expos	-10.716
▁respondiese	-10.7161
▁extremely	-10.7161
▁beber	-10.7161
▁descubrieron	-10.7161
▁desiert	-10.7161
▁luck	-10.7161
▁Recio	-10.7161
▁bueyes	-10.7162
▁huyendo	-10.7162
▁consideración	-10.7163
▁paper	-10.7163
▁vanity	-10.7164
▁amoroso	-10.7165
▁movimiento	-10.7166
▁date	-10.7167
▁salva	-10.7167
▁castigo	-10.7167
AR	-10.7168
▁estuvieron	-10.717
▁despertó	-10.7171
▁viera	-10.7171
▁prometo	-10.7173
▁cortés	-10.7173
▁afirma	-10.7174
▁agradecido	-10.7175
▁ease	-10.7181
oneto	-10.7183
▁consiste	-10.7185
▁stranger	-10.7189
▁pieza	-10.7192
▁iguales	-10.7194
una	-10.7199
tieron	-10.7201
▁Llegóse	-10.7202
▁maravedís	-10.7204
▁noticed	-10.7207
ámonos	-10.7207
béis	-10.7208
▁Dime	-10.7208
▁monta	-10.721
▁labradores	-10.7215
cillo	-10.722
▁changed	-10.7221
pressed	-10.7222
▁abrasa	-10.7225
▁lived	-10.7229
▁llevaron	-10.7232
▁condena	-10.7235
▁pintada	-10.7247
▁gru	-10.7254
▁Venía	-10.7261
▁besar	-10.727
▁saldrá	-10.7278
▁reja	-10.728
▁dejándo	-10.728
▁mine	-10.7296
▁tasa	-10.7298
▁hallarse	-10.7304
▁youth	-10.7311
selo	-10.7318
▁spoken	-10.7324
▁troc	-10.733
▁liga	-10.7334
▁placer	-10.7361
▁amantes	-10.7363
▁halle	-10.7375
▁ciento	-10.7388
unda	-10.739
▁heridas	-10.7392
umbra	-10.7398
▁llora	-10.742
▁favorec	-10.7431
▁dish	-10.7451
▁darte	-10.748
▁senda	-10.7506
▁prepar	-10.7529
▁abra	-10.7536
OR	-10.7537
tad	-10.7538
▁tiro	-10.7546
▁príncipe	-10.757
▁disparate	-10.7572
▁asido	-10.7587
▁aprend	-10.7598
▁Ru	-10.7602
▁Dio	-10.7606
▁oh	-10.7626
▁déje	-10.7675
till	-10.7688
ecido	-10.77
prosiguió	-10.7721
▁recibe	-10.7735
Of	-10.7739
▁joy	-10.775
▁acert	-10.775
▁distribute	-10.7757
▁approach	-10.7763
▁display	-10.7763
▁habilidad	-10.7769
▁español	-10.7769
saz	-10.7778
▁encourage	-10.778
▁possess	-10.7781
▁warm	-10.7781
mitted	-10.7782
postaré	-10.7782
▁Ambrosio	-10.7782
▁Cervantes	-10.7782
▁Gaiferos	-10.7782
▁agujero	-10.7782
▁ansimesmo	-10.7782
▁católico	-10.7782
▁cautiva	-10.7782
▁cheerful	-10.7782
▁cincuenta	-10.7782
▁comparison	-10.7782
▁compassion	-10.7782
▁composure	-10.7782
▁concierto	-10.7782
▁conviction	-10.7782
▁disimul	-10.7782
▁education	-10.7782
▁ejercita	-10.7782
▁entrambas	-10.7782
▁espuelas	-10.7782
▁fabrica	-10.7782
▁fellow	-10.7782
▁fermosura	-10.7782
▁habló	-10.7782
▁hiciere	-10.7782
▁indifferent	-10.7782
▁necio	-10.7782
▁rejoice	-10.7782
▁reverencia	-10.7782
▁rocín	-10.7782
▁sleep	-10.7782
▁sweet	-10.7782
▁tolerable	-10.7782
▁virrey	-10.7782
▁volunteer	-10.7782
▁winter	-10.7782
▁yesterday	-10.7782
▁alcázar	-10.7782
▁dondequiera	-10.7782
▁estribo	-10.7782
▁eterna	-10.7782
▁figure	-10.7782
▁pudieron	-10.7782
▁quisiéredes	-10.7782
▁aloud	-10.7782
▁bolsa	-10.7782
▁suspect	-10.7782
▁creyó	-10.7782
▁falto	-10.7782
▁cuarto	-10.7782
▁cabestro	-10.7782
▁desampar	-10.7782
▁adivin	-10.7782
▁antoja	-10.7782
▁Mandó	-10.7782
▁fault	-10.7782
▁wild	-10.7782
▁seguid	-10.7783
▁supiera	-10.7783
▁emba	-10.7783
▁atentamente	-10.7783
▁comedido	-10.7783
▁detuvo	-10.7783
▁razonable	-10.7783
▁marqués	-10.7783
▁Marién	-10.7783
▁occurred	-10.7783
▁Oyó	-10.7783
▁refuse	-10.7783
▁bright	-10.7783
▁maleta	-10.7783
▁verano	-10.7783
▁cerrado	-10.7783
▁camarada	-10.7783
▁collection	-10.7783
▁arrived	-10.7783
▁housekeeper	-10.7784
▁ésa	-10.7784
▁demasiadamente	-10.7784
▁escurec	-10.7784
▁pierda	-10.7784
▁vitoria	-10.7784
▁cook	-10.7784
▁legal	-10.7784
▁atrás	-10.7785
Bueno	-10.7785
▁bestow	-10.7785
▁advertir	-10.7785
▁bravo	-10.7785
▁tiento	-10.7785
▁contando	-10.7786
▁dejaré	-10.7786
▁music	-10.7786
▁niño	-10.7786
▁vencer	-10.7787
▁estacas	-10.7787
▁admirable	-10.7787
used	-10.7788
▁respondido	-10.7788
▁justice	-10.7788
▁cuántas	-10.7789
▁defend	-10.7789
▁poderosa	-10.7791
▁fail	-10.7791
▁horse	-10.7791
▁count	-10.7792
▁youngest	-10.7793
▁Though	-10.7793
zan	-10.7794
▁produced	-10.7795
▁considerable	-10.7796
Pray	-10.7796
▁vengo	-10.7797
▁dá	-10.7798
▁condado	-10.7799
▁vender	-10.78
▁freely	-10.7801
▁anxiously	-10.7804
▁abrazó	-10.7805
▁determine	-10.7808
▁mandaba	-10.7808
▁veis	-10.7808
▁colores	-10.7811
▁corto	-10.7814
!''	-10.7817
▁seated	-10.7818
▁lively	-10.7819
▁fire	-10.7819
SE	-10.782
▁parties	-10.782
▁learnt	-10.7821
▁declared	-10.7826
▁loud	-10.7827
▁Who	-10.783
▁encuentro	-10.7834
▁santa	-10.7838
▁declarar	-10.7841
▁llevando	-10.7844
▁herido	-10.7852
▁formed	-10.7867
▁Dé	-10.7875
▁Estaba	-10.7879
▁vinie	-10.788
▁escuchaba	-10.788
▁orbe	-10.788
▁comenzar	-10.7882
▁finding	-10.7885
▁desengaño	-10.7893
▁naturales	-10.7897
▁considering	-10.7899
▁quejas	-10.7899
▁Can	-10.7902
▁descubre	-10.7911
▁six	-10.7918
▁joyas	-10.7938
▁habrán	-10.7958
▁pasaban	-10.796
▁Well	-10.7965
▁pelear	-10.7967
▁danza	-10.7974
▁mirase	-10.7977
▁volverse	-10.7983
▁quisieren	-10.7985
▁manta	-10.8008
▁decid	-10.805
▁pisa	-10.8056
▁tela	-10.8062
▁buscaba	-10.8076
▁acabase	-10.808
▁procuraba	-10.813
▁hallará	-10.8153
ustr	-10.8175
▁devot	-10.8192
▁stat	-10.8205
▁cabra	-10.8236
▁cuadrillero	-10.8236
▁alabanza	-10.8236
▁amante	-10.8254
▁comenza	-10.8286
▁pale	-10.8311
▁elegant	-10.8326
▁desengañ	-10.8332
▁format	-10.8347
▁regocij	-10.8352
▁past	-10.8361
▁adora	-10.8361
▁moli	-10.8367
▁mando	-10.8368
▁coma	-10.8381
¡	-10.8387
Digo	-10.8388
Project	-10.8389
▁ech	-10.8397
cus	-10.8399
tenga	-10.8404
▁pong	-10.8422
ize	-10.8426
▁sigh	-10.8428
▁charm	-10.843
▁eager	-10.8434
▁ignora	-10.8437
diciones	-10.8441
▁indigna	-10.8447
nformation	-10.8449
ccompan	-10.8449
clusion	-10.8449
▁Caroline	-10.8449
▁Félix	-10.8449
▁Georgiana	-10.8449
▁Salamanca	-10.8449
▁almohada	-10.8449
▁amusement	-10.8449
▁belief	-10.8449
▁claridad	-10.8449
▁consintió	-10.8449
▁courage	-10.8449
▁cubrir	-10.8449
▁cárcel	-10.8449
▁desigual	-10.8449
▁difference	-10.8449
▁disposed	-10.8449
▁escrúpulo	-10.8449
▁frightened	-10.8449
▁graciosa	-10.8449
▁humildad	-10.8449
▁ilustre	-10.8449
▁imagen	-10.8449
▁individual	-10.8449
▁influence	-10.8449
▁judgment	-10.8449
▁juez	-10.8449
▁llanto	-10.8449
▁medicina	-10.8449
▁medium	-10.8449
▁niñerías	-10.8449
▁opposit	-10.8449
▁pendiente	-10.8449
▁pensando	-10.8449
▁propuso	-10.8449
▁relief	-10.8449
▁siguió	-10.8449
▁trompeta	-10.8449
▁utter	-10.8449
▁vasallos	-10.8449
▁PRO	-10.8449
▁bellotas	-10.8449
▁conocida	-10.8449
▁enfermo	-10.8449
▁engendra	-10.8449
▁neglect	-10.8449
▁private	-10.8449
▁satisfación	-10.8449
▁consuelo	-10.8449
▁invidia	-10.8449
▁sabiendo	-10.8449
▁ángel	-10.8449
Good	-10.8449
▁gentileza	-10.8449
▁contornos	-10.8449
▁intimate	-10.8449
▁predica	-10.8449
▁sharp	-10.8449
▁Bill	-10.8449
▁agudo	-10.8449
▁habiéndose	-10.8449
▁ingrata	-10.8449
▁blando	-10.8449
▁amparo	-10.8449
▁instance	-10.8449
▁ahínco	-10.8449
▁comedimiento	-10.8449
▁pedido	-10.8449
▁varón	-10.8449
▁saltó	-10.8449
lcanzó	-10.8449
▁miseria	-10.8449
▁aparej	-10.8449
▁leonero	-10.8449
▁disagreeable	-10.8449
▁alteza	-10.8449
▁misery	-10.8449
this	-10.8449
▁intrica	-10.8449
▁rescate	-10.845
▁assistance	-10.845
▁Quedó	-10.845
▁execution	-10.845
▁single	-10.8451
▁Llegaron	-10.8451
▁carry	-10.8452
▁frente	-10.8452
▁perdición	-10.8452
▁farther	-10.8452
▁entrance	-10.8453
▁arise	-10.8453
▁añadir	-10.8453
▁duty	-10.8453
▁decoro	-10.8454
iéndola	-10.8454
▁painful	-10.8454
▁rank	-10.8455
▁total	-10.8455
▁manjar	-10.8456
▁perfe	-10.8457
▁autoridad	-10.8457
▁vivie	-10.8457
▁respectable	-10.8458
▁pomp	-10.8458
▁material	-10.846
▁anger	-10.8461
▁fish	-10.8461
▁road	-10.8461
▁rich	-10.8461
▁consideration	-10.8463
▁entrando	-10.8464
▁connected	-10.8464
▁dearest	-10.8465
▁aguardar	-10.8465
▁cumplido	-10.8466
▁value	-10.8467
▁displaying	-10.8469
▁redonda	-10.847
▁concertado	-10.847
▁pago	-10.8472
▁partió	-10.8474
▁required	-10.8476
▁emplea	-10.8476
▁protected	-10.8477
▁muchacha	-10.8478
▁bringing	-10.8479
did	-10.848
▁escura	-10.8483
▁olvidado	-10.8489
▁asiéndole	-10.8493
▁quedaré	-10.8495
▁dormía	-10.8495
▁huéspedes	-10.8498
▁anduv	-10.8503
▁sirven	-10.8505
▁sacaron	-10.8508
▁capa	-10.851
▁Lucases	-10.8515
▁calling	-10.8518
▁formal	-10.8521
▁One	-10.8526
▁acomodó	-10.8528
▁tender	-10.8529
▁cuándo	-10.8533
▁viven	-10.8536
▁palmo	-10.8536
tendiendo	-10.8536
▁vuelven	-10.8537
▁humour	-10.8539
▁compra	-10.8544
▁dejasen	-10.8553
▁dichoso	-10.8561
▁saco	-10.8562
▁run	-10.8564
▁viesen	-10.8569
▁Toda	-10.8573
▁llegan	-10.8574
▁sooner	-10.8579
▁buscarle	-10.8584
▁piece	-10.8588
▁piden	-10.8589
▁presum	-10.8595
▁rose	-10.8604
▁meter	-10.8618
▁rapa	-10.8625
▁digan	-10.8695
▁traen	-10.8702
▁whi	-10.8708
▁quedara	-10.8716
istes	-10.8716
ntada	-10.872
▁admiró	-10.8727
▁Está	-10.8739
▁Here	-10.8742
▁encarg	-10.8743
▁Lleg	-10.875
▁pintar	-10.8761
there	-10.8772
▁desdicha	-10.8893
▁salta	-10.8913
▁riqueza	-10.895
▁pierna	-10.8951
▁rienda	-10.8951
▁azote	-10.8954
▁promet	-10.899
▁dada	-10.901
▁boga	-10.9022
▁persuad	-10.9031
▁saldr	-10.9047
▁iré	-10.9047
▁resc	-10.9062
▁rebuzn	-10.9086
▁rebuznar	-10.9097
like	-10.9102
▁mistake	-10.9119
have	-10.9124
▁Preguntó	-10.9126
▁colg	-10.914
▁resolv	-10.9144
▁materia	-10.9152
como	-10.9157
▁huye	-10.9159
▁Levant	-10.9162
▁puntual	-10.9162
▁accord	-10.9162
▁imposibili	-10.9163
▁astonished	-10.9163
▁awkward	-10.9163
▁gratified	-10.9163
▁study	-10.9163
▁tambor	-10.9163
▁wedding	-10.9163
▁wretched	-10.9163
natured	-10.9163
▁Cecial	-10.9163
▁Díjole	-10.9163
▁Parsonage	-10.9163
▁Pasamonte	-10.9163
▁apprehension	-10.9163
▁arrogante	-10.9163
▁beneficio	-10.9163
▁báculo	-10.9163
▁confieso	-10.9163
▁deceived	-10.9163
▁diamante	-10.9163
▁dormido	-10.9163
▁editions	-10.9163
▁excessive	-10.9163
▁exclaimed	-10.9163
▁fashion	-10.9163
▁gallina	-10.9163
▁indulge	-10.9163
▁izquierdo	-10.9163
▁laberinto	-10.9163
▁manifiesto	-10.9163
▁middle	-10.9163
▁mouse	-10.9163
▁peculiar	-10.9163
▁prisión	-10.9163
▁pronounce	-10.9163
▁pública	-10.9163
▁quarrel	-10.9163
▁quarter	-10.9163
▁relieve	-10.9163
▁sabrosa	-10.9163
▁smiling	-10.9163
▁soberbio	-10.9163
▁testimonio	-10.9163
▁tolerably	-10.9163
▁understood	-10.9163
▁unhappy	-10.9163
▁venturoso	-10.9163
reproach	-10.9163
▁aware	-10.9163
▁humble	-10.9163
▁polvo	-10.9163
▁procesión	-10.9163
▁quienquiera	-10.9163
▁rational	-10.9163
▁Kent	-10.9163
▁rabia	-10.9163
▁ciego	-10.9163
▁estrecho	-10.9163
▁fruto	-10.9163
▁sabéis	-10.9163
▁Consejo	-10.9163
▁prefer	-10.9163
▁probable	-10.9163
▁seguía	-10.9163
áredes	-10.9163
▁grandísima	-10.9163
▁plato	-10.9163
▁falte	-10.9163
▁hueco	-10.9163
▁leisure	-10.9163
▁socorro	-10.9163
▁safe	-10.9163
▁llamo	-10.9163
▁cuerno	-10.9163
▁impresa	-10.9163
▁guess	-10.9163
▁cristal	-10.9164
▁fingida	-10.9164
▁sesenta	-10.9164
▁cima	-10.9164
▁padece	-10.9164
▁tierno	-10.9164
▁hojas	-10.9164
▁trial	-10.9164
▁tienda	-10.9164
▁''¿	-10.9164
▁boast	-10.9165
▁semeja	-10.9165
▁assist	-10.9165
▁enjoyment	-10.9165
▁pierde	-10.9166
▁trujo	-10.9166
▁property	-10.9166
▁caught	-10.9166
▁acostumbrada	-10.9167
▁murió	-10.9167
▁acostumbrado	-10.9168
▁trabaja	-10.9169
▁advertido	-10.9172
▁tornar	-10.9173
▁jug	-10.9173
▁chin	-10.9174
▁calor	-10.9174
▁Such	-10.9175
bró	-10.9177
▁encerrar	-10.918
▁apearse	-10.9181
▁nombrar	-10.9182
▁quietly	-10.9182
▁apartó	-10.9183
▁dalle	-10.9186
▁personaje	-10.9186
▁standing	-10.9187
▁azotar	-10.9187
▁retor	-10.9187
▁Hecho	-10.9188
▁casamiento	-10.9188
▁colgado	-10.9188
▁Hall	-10.9189
adrid	-10.9189
▁principalmente	-10.919
▁rub	-10.919
▁engañar	-10.9191
▁parió	-10.9192
▁deshacer	-10.9193
▁levantaron	-10.9197
▁concertada	-10.9207
▁precia	-10.9211
▁growing	-10.9214
▁ancho	-10.9216
▁remembered	-10.9221
▁moved	-10.9226
▁apartado	-10.9228
▁norte	-10.923
▁gre	-10.9238
▁pido	-10.9242
▁villa	-10.9244
▁relate	-10.9249
▁advirtie	-10.9262
mission	-10.9276
▁accidente	-10.9277
▁dejaban	-10.9283
▁viniesen	-10.9284
▁larger	-10.9301
▁pudiesen	-10.9312
▁harán	-10.9331
▁greatly	-10.9333
▁wishing	-10.9336
▁veen	-10.9341
▁sentar	-10.9347
▁peligrosa	-10.9357
▁levantada	-10.9366
▁guardado	-10.9378
▁advert	-10.9379
▁bota	-10.9389
▁aconsejar	-10.942
▁alabar	-10.9421
Up	-10.9425
law	-10.9433
▁preguntado	-10.9436
▁acababa	-10.9446
»	-10.9453
▁clav	-10.9465
▁barra	-10.9472
▁borr	-10.9492
▁seek	-10.9541
▁feo	-10.9556
him	-10.9562
ábanle	-10.9588
well	-10.9595
▁junt	-10.9609
ativo	-10.9664
▁pretende	-10.9665
box	-10.9678
▁mudar	-10.9683
way	-10.9691
▁anima	-10.9714
rbar	-10.9716
▁hueso	-10.9718
▁suspiro	-10.9721
▁spirit	-10.9721
▁siglo	-10.9722
Off	-10.975
▁trocar	-10.9802
biendo	-10.9823
Are	-10.9851
▁vá	-10.9868
Lizzy	-10.9872
which	-10.9872
Pues	-10.9873
▁tard	-10.9875
▁llevándo	-10.9899
▁frequent	-10.9921
they	-10.9921
▁salí	-10.9927
▁imprim	-10.9929
▁arremet	-10.993
▁enjoy	-10.9932
▁front	-10.9932
▁Alejandro	-10.9932
▁Fortuna	-10.9932
▁QUIJOTE	-10.9932
▁Segunda	-10.9932
▁Street	-10.9932
▁abierta	-10.9932
▁altogether	-10.9932
▁apacible	-10.9932
▁arábigo	-10.9932
▁attentive	-10.9932
▁capellán	-10.9932
▁clothes	-10.9932
▁crowd	-10.9932
▁ejecuta	-10.9932
▁encendida	-10.9932
▁enemiga	-10.9932
▁escopeta	-10.9932
▁escritura	-10.9932
▁gobierna	-10.9932
▁hundred	-10.9932
▁increasing	-10.9932
▁interference	-10.9932
▁juego	-10.9932
▁misfortune	-10.9932
▁mochacho	-10.9932
▁pareciese	-10.9932
▁perezoso	-10.9932
▁persegui	-10.9932
▁possibility	-10.9932
▁profession	-10.9932
▁público	-10.9932
▁reliquia	-10.9932
▁rústico	-10.9932
▁sandeces	-10.9932
▁singular	-10.9932
▁supposing	-10.9932
▁suspicion	-10.9932
▁triumph	-10.9932
▁venideros	-10.9932
▁único	-10.9932
▁Leones	-10.9933
▁breath	-10.9933
▁campana	-10.9933
▁conozca	-10.9933
▁desatino	-10.9933
▁disparatado	-10.9933
▁drink	-10.9933
▁gritos	-10.9933
▁ignorancia	-10.9933
▁morisco	-10.9933
▁providing	-10.9933
▁requiere	-10.9933
▁sabor	-10.9933
▁universal	-10.9933
▁Muerte	-10.9933
▁denuedo	-10.9933
▁escoger	-10.9933
▁occasionally	-10.9933
▁comienza	-10.9933
▁compuso	-10.9933
▁entereza	-10.9933
▁naveg	-10.9933
▁reject	-10.9933
▁ayude	-10.9933
▁sobresalta	-10.9933
▁llover	-10.9933
▁amanece	-10.9933
▁jump	-10.9933
▁link	-10.9933
▁ribera	-10.9933
▁tendida	-10.9933
▁complain	-10.9933
▁cuarta	-10.9933
▁cebada	-10.9933
▁desdeñado	-10.9933
▁flaco	-10.9933
▁pray	-10.9933
▁hermosísima	-10.9933
▁lastimada	-10.9933
▁relación	-10.9933
▁puño	-10.9933
▁quisieron	-10.9933
▁pondrá	-10.9933
▁Lela	-10.9933
▁shame	-10.9933
▁concept	-10.9933
▁habemos	-10.9933
▁suelto	-10.9933
▁compliance	-10.9933
briendo	-10.9933
▁contenía	-10.9933
cogiese	-10.9933
▁apeándose	-10.9933
▁tormento	-10.9933
▁visera	-10.9933
AND	-10.9933
▁tamañ	-10.9933
▁pensé	-10.9933
▁conversación	-10.9933
▁linda	-10.9934
▁corriendo	-10.9934
▁corriente	-10.9934
▁pusiera	-10.9934
▁lloro	-10.9934
▁quédese	-10.9934
▁partiality	-10.9934
▁tardanza	-10.9934
▁posada	-10.9934
▁mentiroso	-10.9934
▁resent	-10.9934
▁corales	-10.9934
▁leyendo	-10.9935
▁coces	-10.9935
▁región	-10.9935
▁baby	-10.9935
▁sutil	-10.9935
▁Soup	-10.9935
▁somebody	-10.9935
▁imitación	-10.9935
▁reducir	-10.9935
▁glosa	-10.9936
▁divina	-10.9936
▁hermana	-10.9936
▁smallest	-10.9937
▁crueldad	-10.9937
▁premia	-10.9937
▁gravedad	-10.9938
▁muera	-10.9938
▁colm	-10.9938
▁actually	-10.9939
▁cuente	-10.9939
▁comfortable	-10.994
▁acontecimiento	-10.994
▁exist	-10.9941
▁movió	-10.9941
UR	-10.9941
▁macho	-10.9941
▁maldiciones	-10.9941
▁sosegada	-10.9942
▁enju	-10.9942
▁convenient	-10.9943
▁touch	-10.9943
▁invited	-10.9944
▁pique	-10.9944
▁difficulty	-10.9945
▁canalla	-10.9945
▁white	-10.9946
▁salía	-10.9946
▁cantando	-10.9947
▁assert	-10.9949
▁ensilla	-10.995
▁severe	-10.995
▁earnestly	-10.995
▁recollected	-10.9951
▁fuertemente	-10.9951
▁acabando	-10.9953
▁anduvo	-10.9955
▁avisar	-10.9955
▁laughing	-10.9959
▁sacando	-10.9961
▁laughed	-10.9962
was	-10.9965
▁Sucedió	-10.9965
▁Nothing	-10.9965
▁sentía	-10.9966
itud	-10.9966
▁fondo	-10.9967
▁distressed	-10.9969
▁comprar	-10.997
▁listening	-10.997
▁alabado	-10.9977
▁emperadores	-10.998
▁siento	-10.9983
tima	-10.9983
▁copying	-10.9987
▁riñ	-10.9988
▁generoso	-10.9997
▁armada	-10.9998
▁keeping	-10.9998
▁ollas	-10.9999
▁declare	-11.0002
▁boy	-11.0003
▁leyese	-11.0007
▁alegrar	-11.001
▁terr	-11.0011
▁Dodo	-11.002
▁perdió	-11.0022
▁cree	-11.0023
▁despreci	-11.0023
émonos	-11.0028
▁puse	-11.0033
▁Yet	-11.0039
▁leyó	-11.004
▁casta	-11.004
▁volverá	-11.004
▁danced	-11.0047
▁pul	-11.0048
▁pesada	-11.0049
▁acomete	-11.0055
▁siente	-11.0068
▁owner	-11.007
bout	-11.0073
▁pida	-11.0086
iqu	-11.0089
▁estará	-11.0091
▁Una	-11.0094
▁encontrar	-11.0096
ltó	-11.01
▁convers	-11.0107
▁Uno	-11.012
▁acompañado	-11.0122
Mi	-11.0126
▁playa	-11.013
▁concert	-11.0136
▁prometer	-11.0141
▁entendía	-11.0145
▁socorrer	-11.0169
ENT	-11.0186
▁Dice	-11.0196
toria	-11.0229
▁fatigaba	-11.0264
prob	-11.0293
▁Vos	-11.0325
▁pusi	-11.0335
recién	-11.0337
▁amada	-11.0364
▁dobla	-11.0372
▁quitarle	-11.0387
▁Na	-11.0401
ezca	-11.0436
▁Ho	-11.0446
▁bocado	-11.0475
▁Ju	-11.0481
▁alegr	-11.0483
ársela	-11.0499
▁correo	-11.0528
cerró	-11.0529
▁regi	-11.0535
▁hombro	-11.0554
▁encant	-11.0588
▁pese	-11.0592
▁RE	-11.0608
ársele	-11.0615
tonces	-11.0654
éronse	-11.0677
▁verso	-11.0689
▁echándo	-11.0691
▁conduc	-11.0692
▁desnud	-11.0699
round	-11.0704
Who	-11.0705
With	-11.0705
though	-11.0706
Miss	-11.0711
Bien	-11.0711
▁arrojar	-11.0716
how	-11.072
book	-11.0721
▁attend	-11.0726
▁perceiv	-11.0746
La	-11.0748
▁XI	-11.0755
▁ofrecer	-11.0756
▁Acudi	-11.0759
Tan	-11.076
▁finish	-11.0761
▁gentle	-11.0764
▁diciplina	-11.0765
▁stop	-11.0766
▁Majesty	-11.0766
▁Barataria	-11.0766
▁abland	-11.0766
▁acuerda	-11.0766
▁advierta	-11.0766
▁communication	-11.0766
▁conjecture	-11.0766
▁desenvain	-11.0766
▁despoblado	-11.0766
▁destrui	-11.0766
▁induce	-11.0766
▁línea	-11.0766
▁satisfy	-11.0766
▁tembl	-11.0766
▁verdugo	-11.0766
nguage	-11.0766
▁ANY	-11.0766
▁Dígolo	-11.0766
▁GUTENBERG	-11.0766
▁General	-11.0766
▁Goleta	-11.0766
▁Mejor	-11.0766
▁Tuesday	-11.0766
▁aborreci	-11.0766
▁accomplished	-11.0766
▁acogimiento	-11.0766
▁acullá	-11.0766
▁advance	-11.0766
▁advise	-11.0766
▁agradezco	-11.0766
▁alivio	-11.0766
▁ardite	-11.0766
▁believing	-11.0766
▁blush	-11.0766
▁bottle	-11.0766
▁complexi	-11.0766
▁computer	-11.0766
▁cédula	-11.0766
▁defraud	-11.0766
▁descomunal	-11.0766
▁embraz	-11.0766
▁encarecer	-11.0766
▁escondida	-11.0766
▁flaqueza	-11.0766
▁guisa	-11.0766
▁guíe	-11.0766
▁iglesia	-11.0766
▁imprudent	-11.0766
▁inútil	-11.0766
▁jueces	-11.0766
▁manchego	-11.0766
▁manifiesta	-11.0766
▁morisca	-11.0766
▁nonsense	-11.0766
▁profunda	-11.0766
▁religioso	-11.0766
▁religión	-11.0766
▁reprehend	-11.0766
▁repuesto	-11.0766
▁requirements	-11.0766
▁revolv	-11.0766
▁riguroso	-11.0766
▁slowly	-11.0766
▁socarrón	-11.0766
▁steady	-11.0766
▁sucediese	-11.0766
▁sábana	-11.0766
▁uncomfortable	-11.0766
▁unfortunate	-11.0766
▁website	-11.0766
▁Denny	-11.0766
▁WARRANT	-11.0766
▁criatura	-11.0766
▁delicacy	-11.0766
▁despacio	-11.0766
▁despierto	-11.0766
▁embajada	-11.0766
▁estudio	-11.0766
▁folly	-11.0766
▁mercader	-11.0766
▁renovar	-11.0766
▁seldom	-11.0766
▁arrimad	-11.0766
▁capital	-11.0766
▁cubría	-11.0766
▁juró	-11.0766
▁tronco	-11.0766
▁bulto	-11.0766
▁llamándo	-11.0766
▁authority	-11.0766
▁cuadra	-11.0766
▁online	-11.0766
▁belong	-11.0766
▁history	-11.0766
▁imperio	-11.0766
▁slate	-11.0766
▁suceden	-11.0766
▁irrita	-11.0766
▁bardas	-11.0766
▁reposar	-11.0766
▁fruta	-11.0766
▁llave	-11.0766
▁tradu	-11.0766
▁congratulations	-11.0766
▁servida	-11.0766
▁asalto	-11.0766
▁paredes	-11.0766
▁ofender	-11.0766
▁stupid	-11.0766
▁moneda	-11.0766
▁trees	-11.0766
▁faltó	-11.0766
▁fresh	-11.0766
▁nieve	-11.0767
▁bound	-11.0767
▁fingido	-11.0767
▁gained	-11.0767
▁Carta	-11.0767
▁Nunc	-11.0767
▁application	-11.0767
▁estir	-11.0767
▁taught	-11.0768
▁shut	-11.0768
▁imaginaciones	-11.0768
▁ensarta	-11.0768
▁possession	-11.0768
▁Most	-11.0768
▁lips	-11.0768
▁mudanza	-11.0768
▁silly	-11.0768
▁baño	-11.0769
▁muere	-11.0769
▁corteses	-11.0769
▁muriendo	-11.077
▁consolar	-11.077
▁cordel	-11.077
▁vendría	-11.077
▁recibieron	-11.077
▁raya	-11.0771
▁pulso	-11.0771
▁favourable	-11.0771
▁descubriese	-11.0771
Adónde	-11.0772
▁desarma	-11.0772
▁replace	-11.0772
▁urge	-11.0773
▁ése	-11.0773
▁menear	-11.0773
▁pool	-11.0773
▁page	-11.0773
▁contraria	-11.0774
▁damage	-11.0774
▁disappointed	-11.0774
▁debida	-11.0775
▁estampa	-11.0775
zuelo	-11.0775
▁porfía	-11.0776
▁gate	-11.0776
▁María	-11.0777
▁saliendo	-11.0777
▁rendido	-11.0778
▁aficionado	-11.0778
▁concluded	-11.0778
▁varia	-11.0779
▁lately	-11.0779
▁holder	-11.078
▁Otro	-11.0781
▁carried	-11.0782
▁callando	-11.0782
▁tail	-11.0784
▁broken	-11.0784
▁españoles	-11.0784
▁generous	-11.0785
▁attending	-11.0785
▁gust	-11.0787
▁perceived	-11.0787
▁enviado	-11.0788
▁despertar	-11.079
▁abus	-11.0791
▁seriously	-11.0792
▁approaching	-11.0792
▁pity	-11.0792
▁funda	-11.0793
▁dejemos	-11.0795
▁Allí	-11.0795
▁passing	-11.0796
▁list	-11.0797
▁remaining	-11.0799
▁complying	-11.08
▁distributed	-11.08
▁derribado	-11.0803
▁raso	-11.0803
▁ordered	-11.0804
▁cease	-11.0806
▁Alá	-11.0808
Would	-11.0813
▁Desta	-11.0814
▁posted	-11.0818
▁shortly	-11.0824
▁convida	-11.0825
▁ahorrar	-11.0826
▁salían	-11.083
▁costal	-11.0831
▁serviros	-11.0832
▁deny	-11.0834
▁impu	-11.0835
▁imaginarse	-11.0837
▁Lu	-11.0845
▁rodela	-11.0847
▁redond	-11.0848
▁mostrarse	-11.0851
llón	-11.0851
▁persuasion	-11.0854
▁feared	-11.0856
▁casarse	-11.0874
▁observe	-11.0879
▁admired	-11.0889
respondí	-11.091
born	-11.0915
▁Desa	-11.0915
▁soseg	-11.0919
▁elegante	-11.0924
▁trujese	-11.0924
▁regidor	-11.098
▁rule	-11.0982
tained	-11.0982
▁admiraba	-11.0991
riz	-11.0992
Did	-11.0993
▁apear	-11.0997
▁cata	-11.1009
FOR	-11.1025
▁limpi	-11.1029
▁tocante	-11.1032
caminando	-11.105
respondieron	-11.1051
▁honr	-11.1077
▁lavar	-11.1087
LE	-11.11
▁irá	-11.114
▁aparta	-11.116
▁asegurar	-11.1169
▁tomé	-11.1172
▁dársel	-11.1199
▁Gui	-11.1234
lip	-11.124
Have	-11.125
nding	-11.1263
main	-11.1271
▁cumpla	-11.1277
▁creat	-11.1289
▁quedé	-11.1291
▁quejar	-11.1314
▁barr	-11.1322
cargó	-11.133
ecida	-11.1343
▁eche	-11.1355
butter	-11.136
Vive	-11.1377
▁pace	-11.1431
▁instrument	-11.1441
echando	-11.1445
▁relation	-11.1464
▁month	-11.1468
▁bestia	-11.1473
▁solicitud	-11.1483
▁joya	-11.1498
▁guardaba	-11.1505
timo	-11.1519
ended	-11.1546
▁olvid	-11.1564
▁reparti	-11.1608
grada	-11.1612
place	-11.1613
worth	-11.1614
fuera	-11.1615
érades	-11.1626
▁err	-11.1627
Let	-11.1629
porque	-11.1629
▁haciéndo	-11.1647
▁settle	-11.165
▁recollect	-11.1652
▁possibl	-11.1653
▁Every	-11.1661
▁necedad	-11.1661
▁galeot	-11.1662
cubrió	-11.1669
▁reduc	-11.1671
▁execut	-11.1673
▁Guinart	-11.1675
▁bellaquería	-11.1675
▁carretero	-11.1675
▁comisario	-11.1675
▁embestir	-11.1675
▁escogido	-11.1675
▁poblado	-11.1675
▁recebida	-11.1675
▁rústica	-11.1675
▁unexpected	-11.1675
▁variet	-11.1675
▁vestiglo	-11.1675
▁virtuoso	-11.1675
Footman	-11.1675
stantinopla	-11.1675
▁Durandarte	-11.1675
▁Dígame	-11.1675
▁English	-11.1675
▁Pigeon	-11.1675
▁Saavedra	-11.1675
▁Vivaldo	-11.1675
▁Vuesa	-11.1675
▁absurd	-11.1675
▁adelanta	-11.1675
▁ademán	-11.1675
▁artillería	-11.1675
▁benefit	-11.1675
▁birds	-11.1675
▁capitanes	-11.1675
▁chaise	-11.1675
▁chusma	-11.1675
▁circunstancia	-11.1675
▁clavija	-11.1675
▁confidence	-11.1675
▁conocieron	-11.1675
▁desaguisado	-11.1675
▁desalmado	-11.1675
▁discurr	-11.1675
▁distinguish	-11.1675
▁edificio	-11.1675
▁elopement	-11.1675
▁espuma	-11.1675
▁excited	-11.1675
▁felicísimo	-11.1675
▁fábula	-11.1675
▁gallarda	-11.1675
▁gloves	-11.1675
▁grieved	-11.1675
▁hideputa	-11.1675
▁incomparable	-11.1675
▁intitula	-11.1675
▁invierno	-11.1675
▁matrimonio	-11.1675
▁melancholy	-11.1675
▁melancolía	-11.1675
▁memorable	-11.1675
▁ministro	-11.1675
▁mohíno	-11.1675
▁monesterio	-11.1675
▁nacida	-11.1675
▁necessity	-11.1675
▁ocasiones	-11.1675
▁preserve	-11.1675
▁profeso	-11.1675
▁provincia	-11.1675
▁puercos	-11.1675
▁purchase	-11.1675
▁pérdida	-11.1675
▁púsose	-11.1675
▁rigurosa	-11.1675
▁soldiers	-11.1675
▁terciopelo	-11.1675
▁threw	-11.1675
▁través	-11.1675
▁unpleasant	-11.1675
▁vexation	-11.1675
▁órdenes	-11.1675
▁cabecera	-11.1675
▁cansancio	-11.1675
▁caterva	-11.1675
▁catorce	-11.1675
▁escuridad	-11.1675
▁liebre	-11.1675
▁limpieza	-11.1675
▁method	-11.1675
▁pondría	-11.1675
▁stairs	-11.1675
▁sustancia	-11.1675
▁traición	-11.1675
▁venerable	-11.1675
▁couple	-11.1675
▁despidió	-11.1675
▁ladrones	-11.1675
▁wander	-11.1675
▁water	-11.1675
▁adornada	-11.1675
▁batanes	-11.1675
▁clever	-11.1675
▁desirable	-11.1675
▁feature	-11.1675
▁pudiendo	-11.1675
tinencia	-11.1675
▁flow	-11.1675
▁fresca	-11.1675
▁inquiry	-11.1675
▁Quisiera	-11.1675
▁aceite	-11.1675
▁deposit	-11.1675
▁desaforado	-11.1675
▁ninfa	-11.1675
▁result	-11.1675
▁across	-11.1675
▁relationship	-11.1675
▁consolation	-11.1675
▁permiti	-11.1675
▁Sepa	-11.1675
▁overcome	-11.1675
▁pensase	-11.1675
▁sustento	-11.1675
HIS	-11.1675
▁Agora	-11.1675
▁bitter	-11.1675
▁grin	-11.1675
▁pagó	-11.1675
▁coach	-11.1675
▁convertid	-11.1675
▁dropped	-11.1675
▁remind	-11.1675
▁female	-11.1675
▁supper	-11.1675
▁injuri	-11.1675
arráez	-11.1675
▁Toledo	-11.1675
▁prosper	-11.1675
▁descansa	-11.1675
áramos	-11.1675
▁aporrea	-11.1675
▁lastimado	-11.1675
▁Diana	-11.1675
▁ganadero	-11.1675
▁dudoso	-11.1675
clock	-11.1675
▁escuela	-11.1675
▁Acaba	-11.1675
▁glass	-11.1676
▁divert	-11.1676
▁bendito	-11.1676
▁osaré	-11.1676
▁Contó	-11.1676
▁excelencia	-11.1676
▁suelta	-11.1676
▁escusado	-11.1676
▁besides	-11.1676
▁pintor	-11.1676
▁income	-11.1676
▁interruption	-11.1676
▁introduction	-11.1676
▁leyere	-11.1677
▁residen	-11.1677
▁poniéndose	-11.1677
▁comparación	-11.1677
▁defective	-11.1677
▁gordo	-11.1677
▁cascos	-11.1677
▁cometido	-11.1677
▁podemos	-11.1677
▁medida	-11.1678
▁regla	-11.1678
▁merit	-11.1678
▁poli	-11.1678
▁trujeron	-11.1678
parlour	-11.1678
▁horca	-11.1678
tiful	-11.1679
▁puente	-11.1679
▁highest	-11.1679
▁alteration	-11.168
lished	-11.168
▁separate	-11.168
▁caridad	-11.1681
▁thankful	-11.1681
▁acontecido	-11.1681
▁ambas	-11.1682
▁observing	-11.1682
▁obligación	-11.1683
▁parish	-11.1684
▁certi	-11.1684
▁excel	-11.1684
▁estimación	-11.1685
▁dificultades	-11.1685
▁mark	-11.1685
pidieron	-11.1685
▁familiar	-11.1686
▁Más	-11.1686
▁tired	-11.1687
▁amongst	-11.1687
▁queriendo	-11.1687
▁desdenes	-11.1688
▁agraviado	-11.1688
...»	-11.1688
▁fiero	-11.1689
▁mesón	-11.1689
bajó	-11.169
oop	-11.1691
▁included	-11.1691
▁increased	-11.1691
▁directed	-11.1692
▁otorg	-11.1692
▁ventured	-11.1693
▁dobl	-11.1694
▁fiera	-11.1694
▁sentaron	-11.1695
▁habilidades	-11.1695
▁created	-11.1698
▁quejarse	-11.1699
▁wit	-11.1699
▁aldeana	-11.17
▁pelota	-11.1701
▁diría	-11.1703
▁calm	-11.1706
▁animales	-11.1707
▁humo	-11.1707
▁explained	-11.1711
▁Entre	-11.1712
reciendo	-11.1716
▁watching	-11.1718
▁CO	-11.1718
▁hito	-11.1719
▁imaginó	-11.1721
▁quedamos	-11.1723
▁Parec	-11.1727
▁goodness	-11.1728
▁labor	-11.1729
▁pura	-11.1747
▁rasg	-11.1748
▁pig	-11.175
▁escap	-11.1766
mbos	-11.1768
▁venda	-11.1772
▁viste	-11.1774
▁ordenado	-11.1775
▁hurto	-11.1782
▁manso	-11.1783
▁vieja	-11.1802
▁gustoso	-11.1814
▁solicitude	-11.187
▁creía	-11.1873
▁olvide	-11.1897
▁encomendándo	-11.1906
▁duelo	-11.193
▁divi	-11.1937
▁entraba	-11.1941
tener	-11.1957
▁coger	-11.1962
▁acto	-11.1976
Just	-11.1982
▁escapar	-11.199
▁cantaba	-11.2003
▁quemar	-11.2011
▁zaga	-11.202
▁remedia	-11.206
▁guardada	-11.2063
▁enseñar	-11.2133
▁abominabl	-11.2199
▁declarado	-11.2207
capaz	-11.2225
Viva	-11.2292
ándonos	-11.2293
▁desnuda	-11.2331
▁entregar	-11.2372
▁caía	-11.2401
▁pedazo	-11.2463
▁galera	-11.2464
Ten	-11.248
▁truje	-11.2488
▁pastoral	-11.2502
▁relat	-11.252
▁persuadi	-11.2545
body	-11.2561
▁enamora	-11.2588
▁teniéndol	-11.2592
imientos	-11.2608
Mirad	-11.2613
Aquí	-11.2614
Ahora	-11.2614
when	-11.2615
would	-11.2619
tengo	-11.2626
▁comía	-11.263
▁ocupar	-11.2632
piece	-11.2645
▁Admir	-11.2651
▁interrupt	-11.2652
túvo	-11.2655
Com	-11.2666
ING	-11.2669
▁azota	-11.2673
▁desface	-11.2675
▁flirt	-11.2675
rólogo	-11.2675
▁Andalucía	-11.2675
▁Antonomasia	-11.2675
▁Aragón	-11.2675
▁Belerma	-11.2675
▁Candaya	-11.2675
▁Corchuelo	-11.2675
▁Cuenta	-11.2675
▁Después	-11.2675
▁Lambton	-11.2675
▁Mantua	-11.2675
▁Pierres	-11.2675
▁Reynolds	-11.2675
▁Rodrigo	-11.2675
▁Satanás	-11.2675
▁abundante	-11.2675
▁advierte	-11.2675
▁alcaide	-11.2675
▁amazement	-11.2675
▁angrily	-11.2675
▁apariencia	-11.2675
▁archivo	-11.2675
▁arrobas	-11.2675
▁billete	-11.2675
▁blind	-11.2675
▁calculate	-11.2675
▁caperuza	-11.2675
▁capitana	-11.2675
▁cayeron	-11.2675
▁church	-11.2675
▁codicioso	-11.2675
▁conseguir	-11.2675
▁consequently	-11.2675
▁coyuntura	-11.2675
▁croquet	-11.2675
▁cumplimiento	-11.2675
▁cántaro	-11.2675
▁derivativ	-11.2675
▁descolg	-11.2675
▁difunto	-11.2675
▁disposición	-11.2675
▁embarrassment	-11.2675
▁employment	-11.2675
▁enriquec	-11.2675
▁escuderil	-11.2675
▁estiende	-11.2675
▁estranjer	-11.2675
▁fatigue	-11.2675
▁furniture	-11.2675
▁gallardía	-11.2675
▁gentilhombre	-11.2675
▁gracious	-11.2675
▁griego	-11.2675
▁hedgehog	-11.2675
▁impatience	-11.2675
▁improvement	-11.2675
▁imágines	-11.2675
▁infame	-11.2675
▁insufficient	-11.2675
▁intimacy	-11.2675
▁invencible	-11.2675
▁legítima	-11.2675
▁lícito	-11.2675
▁madruga	-11.2675
▁ourselves	-11.2675
▁patience	-11.2675
▁rendered	-11.2675
▁rendir	-11.2675
▁requesones	-11.2675
▁satisfar	-11.2675
▁scruple	-11.2675
▁soberbia	-11.2675
▁thither	-11.2675
▁triunfa	-11.2675
▁unlucky	-11.2675
▁utmost	-11.2675
▁various	-11.2675
▁virtue	-11.2675
▁yield	-11.2675
▁áspero	-11.2675
▁éramos	-11.2675
▁alrededor	-11.2675
▁aniquil	-11.2675
▁bandera	-11.2675
▁confusa	-11.2675
▁eterno	-11.2675
▁galán	-11.2675
▁hallazgo	-11.2675
▁inferior	-11.2675
▁maltrecho	-11.2675
▁medroso	-11.2675
▁mínima	-11.2675
▁nosotras	-11.2675
▁preference	-11.2675
▁probability	-11.2675
▁reconcil	-11.2675
▁secrecy	-11.2675
▁sufficient	-11.2675
▁viernes	-11.2675
▁Acabó	-11.2675
▁Alonso	-11.2675
▁César	-11.2675
▁Rióse	-11.2675
▁alfiler	-11.2675
▁dream	-11.2675
▁examina	-11.2675
▁salteador	-11.2675
▁sandez	-11.2675
▁digáis	-11.2675
▁discuss	-11.2675
▁lloró	-11.2675
▁menoscabo	-11.2675
▁progres	-11.2675
▁Entró	-11.2675
▁embarcar	-11.2675
▁extent	-11.2675
▁lealtad	-11.2675
▁contempl	-11.2675
▁Turco	-11.2675
▁cordial	-11.2675
▁creído	-11.2675
▁doliente	-11.2675
▁componen	-11.2675
▁déjame	-11.2675
▁ganancia	-11.2675
▁quietud	-11.2675
misión	-11.2675
▁Apolo	-11.2675
▁attack	-11.2675
▁ofrezco	-11.2675
▁proprio	-11.2675
▁piadoso	-11.2675
▁VII	-11.2675
▁llovi	-11.2675
▁caldero	-11.2675
▁source	-11.2675
▁style	-11.2675
▁tropel	-11.2675
▁ferido	-11.2675
▁shoes	-11.2675
▁estuviere	-11.2675
▁pugna	-11.2675
▁litera	-11.2675
▁quebrada	-11.2675
▁ballesta	-11.2675
▁spot	-11.2675
▁candil	-11.2675
▁earlie	-11.2675
▁romano	-11.2675
critical	-11.2675
▁descalz	-11.2675
▁ausenta	-11.2675
▁Eneas	-11.2675
▁mueve	-11.2676
▁Poco	-11.2676
▁contino	-11.2676
▁apunta	-11.2676
▁forgive	-11.2676
▁Lord	-11.2676
▁hablo	-11.2676
▁sopla	-11.2676
▁friendship	-11.2676
▁avail	-11.2676
▁happiest	-11.2676
▁alcance	-11.2676
▁remarkably	-11.2676
▁lessons	-11.2676
▁idle	-11.2676
▁enfada	-11.2677
▁huele	-11.2677
▁vine	-11.2677
▁partial	-11.2677
▁mentirosa	-11.2677
▁Levantóse	-11.2677
▁valerosa	-11.2677
▁temeridad	-11.2677
▁prosiguiendo	-11.2677
▁encouragement	-11.2678
▁contraveni	-11.2678
▁distant	-11.2678
▁drive	-11.2678
▁heartily	-11.2678
▁active	-11.2678
▁corredores	-11.2678
▁Miró	-11.2679
▁enterrar	-11.2679
▁ansia	-11.2679
▁payment	-11.268
▁esforz	-11.2681
▁admitted	-11.2681
▁enfado	-11.2682
ábanse	-11.2682
▁doloroso	-11.2682
▁consiente	-11.2683
▁Mucha	-11.2683
▁licor	-11.2683
▁uncommonly	-11.2683
▁death	-11.2683
▁comúnmente	-11.2684
▁remarkable	-11.2684
▁nobleza	-11.2684
▁outside	-11.2685
▁firmeza	-11.2685
▁catch	-11.2685
▁mazo	-11.2686
▁impatiently	-11.2686
▁siesta	-11.2687
▁contrary	-11.2687
▁amarga	-11.2687
▁XII	-11.2689
▁TO	-11.269
▁puzzled	-11.269
▁Five	-11.269
▁nombrado	-11.2691
▁comiendo	-11.2691
▁retrat	-11.2691
▁acero	-11.2694
ridge	-11.2695
▁Decía	-11.2695
ngel	-11.2696
▁tocino	-11.2697
▁Admirado	-11.2699
▁asombr	-11.27
▁calz	-11.27
▁lenguaje	-11.2702
Where	-11.2704
ities	-11.2707
▁papa	-11.2708
▁turbada	-11.2709
▁presa	-11.2711
hook	-11.2714
▁salto	-11.2714
▁cuan	-11.2719
▁Preguntóle	-11.2727
▁haciéndole	-11.2727
▁Hart	-11.2735
▁partido	-11.2751
▁north	-11.2753
▁comenzaba	-11.2753
▁determinar	-11.2755
▁rasa	-11.2759
▁errar	-11.2763
ropel	-11.2764
▁lleg	-11.2765
▁contaba	-11.2769
valid	-11.2772
▁moderno	-11.2802
▁regocijo	-11.2825
▁lloraba	-11.283
▁tomándo	-11.2845
▁callaba	-11.2856
▁tuvi	-11.2868
cumb	-11.2888
▁Traía	-11.2904
▁asom	-11.2909
pecial	-11.2966
▁descubría	-11.3008
nsí	-11.301
ficie	-11.3022
▁tomaba	-11.3036
▁rum	-11.3083
▁desnudar	-11.3093
sistir	-11.312
▁tiraba	-11.3137
▁movía	-11.3161
▁conocí	-11.3172
▁poniéndol	-11.3227
▁dañ	-11.3242
▁pedí	-11.338
▁Vist	-11.3427
advertid	-11.343
▁socorre	-11.345
▁speci	-11.347
Tell	-11.3512
▁sosegar	-11.354
▁rayo	-11.3572
▁diferente	-11.3574
▁cuero	-11.3591
May	-11.3603
ándolos	-11.3638
tendieron	-11.3647
Venga	-11.3651
▁rompi	-11.3673
▁gustar	-11.368
▁castig	-11.3699
important	-11.3725
Lady	-11.3726
▁abad	-11.3727
His	-11.374
▁direct	-11.3751
▁instant	-11.3752
▁protect	-11.3765
▁despech	-11.3768
▁agravia	-11.377
▁impatient	-11.3774
▁cabal	-11.3775
▁fix	-11.3775
▁Tho	-11.3776
▁ceremoni	-11.3779
ffect	-11.3783
▁Volv	-11.3783
▁collect	-11.3784
▁reflect	-11.3784
▁occur	-11.3785
▁desembarc	-11.3786
hank	-11.3786
▁ermita	-11.3786
▁height	-11.3786
▁asleep	-11.3786
▁eight	-11.3786
▁incomodidad	-11.3786
▁narrow	-11.3786
▁peregrina	-11.3786
▁school	-11.3786
▁suggest	-11.3786
▁twelve	-11.3786
BILITY	-11.3786
Gracechurch	-11.3786
Púsose	-11.3786
Which	-11.3786
winkle	-11.3786
▁AGREE	-11.3786
▁Angélica	-11.3786
▁Bernard	-11.3786
▁Carlomagno	-11.3786
▁Casildea	-11.3786
▁Córdoba	-11.3786
▁DAMAGE	-11.3786
▁Diablo	-11.3786
▁Indias	-11.3786
▁Interés	-11.3786
▁Jenkinson	-11.3786
▁Knave	-11.3786
▁Lanzarote	-11.3786
▁MANCHA	-11.3786
▁NOT	-11.3786
▁Reinaldos	-11.3786
▁Roncesvalles	-11.3786
▁Troya	-11.3786
▁Virgilio	-11.3786
▁Wednesday	-11.3786
▁afligido	-11.3786
▁agradecimiento	-11.3786
▁arrangement	-11.3786
▁assembly	-11.3786
▁attribute	-11.3786
▁bergantín	-11.3786
▁bizma	-11.3786
▁cabalgadura	-11.3786
▁caritativo	-11.3786
▁católica	-11.3786
▁chirimías	-11.3786
▁circle	-11.3786
▁cojín	-11.3786
▁commendation	-11.3786
▁compañera	-11.3786
▁congratulate	-11.3786
▁cuartillo	-11.3786
▁demasiado	-11.3786
▁desposorio	-11.3786
▁desviado	-11.3786
▁dificultosa	-11.3786
▁dificultoso	-11.3786
▁eclesiástico	-11.3786
▁elegance	-11.3786
▁enamoró	-11.3786
▁entretenía	-11.3786
▁envuelto	-11.3786
▁equipment	-11.3786
▁esfuerzo	-11.3786
▁franceses	-11.3786
▁hechicero	-11.3786
▁impresión	-11.3786
▁impression	-11.3786
▁imprudence	-11.3786
▁incapable	-11.3786
▁intencionado	-11.3786
▁intrépido	-11.3786
▁muñeca	-11.3786
▁necesita	-11.3786
▁obedecer	-11.3786
▁official	-11.3786
▁ojeriza	-11.3786
▁ordinaria	-11.3786
▁oyéndo	-11.3786
▁pacífico	-11.3786
▁palafrén	-11.3786
▁perpetua	-11.3786
▁pollina	-11.3786
▁previous	-11.3786
▁pájaro	-11.3786
▁reception	-11.3786
▁refusal	-11.3786
▁rincón	-11.3786
▁royalties	-11.3786
▁sacrifice	-11.3786
▁sepultado	-11.3786
▁shouted	-11.3786
▁siéndolo	-11.3786
▁sollozos	-11.3786
▁sorrow	-11.3786
▁summon	-11.3786
▁temptation	-11.3786
▁tercero	-11.3786
▁third	-11.3786
▁timidly	-11.3786
▁tragedia	-11.3786
▁uneasy	-11.3786
▁ámbar	-11.3786
petition	-11.3786
▁Grecia	-11.3786
▁Pidió	-11.3786
▁Sunday	-11.3786
▁contrahecha	-11.3786
▁descanso	-11.3786
▁exertion	-11.3786
▁fugitiv	-11.3786
▁pacífica	-11.3786
▁redistribut	-11.3786
▁resign	-11.3786
▁sastre	-11.3786
▁trasluce	-11.3786
▁undoubted	-11.3786
▁fancied	-11.3786
▁galgo	-11.3786
▁mamma	-11.3786
▁politely	-11.3786
▁punish	-11.3786
▁reposada	-11.3786
▁valuable	-11.3786
▁Salió	-11.3786
▁cintura	-11.3786
▁dispone	-11.3786
▁encarecida	-11.3786
▁follon	-11.3786
▁glance	-11.3786
▁mistress	-11.3786
▁mueva	-11.3786
▁replicar	-11.3786
▁temerario	-11.3786
▁Calló	-11.3786
▁grita	-11.3786
▁permita	-11.3786
▁command	-11.3786
▁conclui	-11.3786
▁faint	-11.3786
▁flecha	-11.3786
▁malezas	-11.3786
▁destroy	-11.3786
▁flaca	-11.3786
▁memory	-11.3786
▁Verde	-11.3786
▁despierta	-11.3786
▁intru	-11.3786
▁demasía	-11.3786
▁fetch	-11.3786
▁pleito	-11.3786
▁Llam	-11.3786
▁Poor	-11.3786
▁Fama	-11.3786
▁sarta	-11.3786
▁vomita	-11.3786
▁key	-11.3786
▁strik	-11.3786
▁serpent	-11.3786
▁Llev	-11.3786
▁atañe	-11.3786
▁honor	-11.3786
▁measure	-11.3786
▁lector	-11.3786
▁mató	-11.3786
▁merecido	-11.3786
▁perdone	-11.3786
▁Corte	-11.3786
▁lieu	-11.3786
▁lascivo	-11.3786
▁guest	-11.3786
▁propose	-11.3786
▁preced	-11.3786
▁delicate	-11.3786
▁Había	-11.3786
▁disdain	-11.3786
▁duelen	-11.3786
▁cuerda	-11.3786
▁resplandeciente	-11.3787
▁stopped	-11.3787
▁afición	-11.3787
▁descontent	-11.3787
▁foolish	-11.3787
▁comedida	-11.3787
▁interval	-11.3787
contact	-11.3787
▁templo	-11.3787
UND	-11.3787
▁service	-11.3787
▁interés	-11.3787
▁sepáis	-11.3787
▁detenía	-11.3787
▁nervous	-11.3787
▁passage	-11.3787
▁consult	-11.3787
▁meditat	-11.3787
▁porfiar	-11.3787
▁aumenta	-11.3787
▁propriety	-11.3787
▁maldito	-11.3787
▁cantó	-11.3787
▁favorezca	-11.3787
▁oigo	-11.3787
▁venís	-11.3787
▁achaque	-11.3787
▁azul	-11.3787
▁reprehensión	-11.3787
▁ordenanza	-11.3788
▁commission	-11.3788
▁owed	-11.3788
▁selfish	-11.3788
Voto	-11.3788
▁suceda	-11.3788
NSE	-11.3788
▁cazadores	-11.3788
▁performance	-11.3789
▁frontero	-11.3789
▁amarillo	-11.3789
▁ronda	-11.3789
▁perdiese	-11.3789
▁banco	-11.3789
▁passion	-11.379
▁paradero	-11.379
▁obligaciones	-11.379
▁cumbre	-11.379
▁hubieron	-11.379
▁dándome	-11.379
▁preguntándole	-11.379
▁tongue	-11.379
▁caliente	-11.379
▁delicada	-11.379
▁accidental	-11.379
▁harm	-11.379
▁disclaimer	-11.379
▁advertimiento	-11.3791
▁delicado	-11.3791
▁déstos	-11.3791
▁Mucho	-11.3791
▁espantable	-11.3791
▁applica	-11.3791
▁villana	-11.3792
▁held	-11.3792
▁begun	-11.3792
▁menuda	-11.3792
▁venimos	-11.3792
▁torpe	-11.3792
▁compás	-11.3793
▁cejas	-11.3793
▁temía	-11.3793
▁acompañaban	-11.3793
▁intentar	-11.3795
▁calzas	-11.3795
▁cortésmente	-11.3795
fío	-11.3796
.’”	-11.3796
▁saltando	-11.3797
▁finger	-11.3797
▁pozo	-11.3797
▁odd	-11.3797
▁lying	-11.3798
▁señorío	-11.3798
▁oirá	-11.3798
Please	-11.3799
▁river	-11.3799
▁Roto	-11.38
▁quitted	-11.38
▁Sancha	-11.38
▁obligation	-11.38
▁subido	-11.3801
▁menesterosa	-11.3802
▁suspender	-11.3803
▁pack	-11.3803
▁dorada	-11.3804
▁cobre	-11.3804
▁lobos	-11.3804
▁Otra	-11.3806
▁apply	-11.3806
▁wherever	-11.3806
▁salgo	-11.3807
▁viéndola	-11.3807
▁recrea	-11.3808
▁cesaba	-11.3813
▁promoti	-11.3815
▁espacioso	-11.3816
rofess	-11.3822
▁espere	-11.3822
▁perdí	-11.3823
▁compose	-11.3823
▁ring	-11.3827
▁cava	-11.3837
▁dilat	-11.3838
▁yerra	-11.3841
▁castigado	-11.3842
▁floresta	-11.3859
▁condescend	-11.386
▁regist	-11.3906
costó	-11.392
tendiese	-11.3943
▁carri	-11.3966
▁prometía	-11.401
▁Venid	-11.4031
▁Mari	-11.4033
GE	-11.4117
text	-11.4233
▁Espa	-11.4254
▁lumbre	-11.4341
▁introduc	-11.4375
▁sacudi	-11.4378
▁Habl	-11.444
émosle	-11.4459
ggl	-11.4492
▁demand	-11.4495
ndremos	-11.4562
light	-11.4706
▁honest	-11.4803
▁turco	-11.4824
▁accident	-11.483
▁prudent	-11.4859
▁entretuv	-11.4892
rezcan	-11.4945
▁retirar	-11.4946
right	-11.4974
¿	-11.4974
work	-11.4976
(	-11.4976
cierta	-11.4977
▁viéndo	-11.4977
Así	-11.4979
metido	-11.4981
▁venture	-11.501
▁produce	-11.5011
▁acknowledge	-11.5011
▁dificultad	-11.5022
▁happi	-11.5033
▁recei	-11.5033
▁Respond	-11.5033
iéredes	-11.5034
uerpo	-11.5035
periencia	-11.5035
▁fool	-11.5035
▁gratify	-11.5036
▁advisable	-11.5036
▁anticipat	-11.5036
▁kill	-11.5036
▁mushroom	-11.5036
▁philosoph	-11.5036
▁prejudice	-11.5036
▁supply	-11.5036
Certainly	-11.5036
caecimiento	-11.5036
pitafio	-11.5036
propiedad	-11.5036
▁Castilla	-11.5036
▁Clori	-11.5036
▁Curioso	-11.5036
▁Gabán	-11.5036
▁Micomicón	-11.5036
▁Monday	-11.5036
▁Montalbán	-11.5036
▁Moreno	-11.5036
▁Nápoles	-11.5036
▁Ruidera	-11.5036
▁Scotland	-11.5036
▁Tirteafuera	-11.5036
▁Trifaldín	-11.5036
▁accomplishment	-11.5036
▁agudeza	-11.5036
▁alboroto	-11.5036
▁alfanje	-11.5036
▁approve	-11.5036
▁aprieta	-11.5036
▁atrevió	-11.5036
▁averiguada	-11.5036
▁barruntos	-11.5036
▁blasfemia	-11.5036
▁bonitamente	-11.5036
▁brocado	-11.5036
▁caballeresca	-11.5036
▁celebro	-11.5036
▁chimney	-11.5036
▁clergyman	-11.5036
▁coffee	-11.5036
▁confianza	-11.5036
▁creyese	-11.5036
▁cuarenta	-11.5036
▁cuchillo	-11.5036
▁desagradecido	-11.5036
▁descubierta	-11.5036
▁desmesurad	-11.5036
▁discourse	-11.5036
▁discreciones	-11.5036
▁distintamente	-11.5036
▁domestic	-11.5036
▁employed	-11.5036
▁encaminó	-11.5036
▁encubre	-11.5036
▁entierro	-11.5036
▁estrañeza	-11.5036
▁extraordinario	-11.5036
▁fantasía	-11.5036
▁fazaña	-11.5036
▁fidelidad	-11.5036
▁filósofo	-11.5036
▁gallantry	-11.5036
▁gemidos	-11.5036
▁greguescos	-11.5036
▁herreruelo	-11.5036
▁impertinence	-11.5036
▁inaudito	-11.5036
▁inconvenience	-11.5036
▁indebted	-11.5036
▁innumerable	-11.5036
▁insulano	-11.5036
▁intenciones	-11.5036
▁juzgó	-11.5036
▁luciente	-11.5036
▁molineros	-11.5036
▁nacimiento	-11.5036
▁narración	-11.5036
▁nueve	-11.5036
▁ociosidad	-11.5036
▁oppose	-11.5036
▁oprim	-11.5036
▁pergamino	-11.5036
▁perpetuo	-11.5036
▁pocket	-11.5036
▁pollinos	-11.5036
▁prosupuesto	-11.5036
▁provision	-11.5036
▁provoke	-11.5036
▁próspero	-11.5036
▁punctual	-11.5036
▁pursue	-11.5036
▁quebrantado	-11.5036
▁recompensa	-11.5036
▁reference	-11.5036
▁revuelto	-11.5036
▁sacerdote	-11.5036
▁sagacidad	-11.5036
▁satisfag	-11.5036
▁sucedidas	-11.5036
▁syllable	-11.5036
▁thorough	-11.5036
▁tinieblas	-11.5036
▁tripas	-11.5036
▁triunfo	-11.5036
▁túmulo	-11.5036
▁uniform	-11.5036
▁unknown	-11.5036
▁vacío	-11.5036
▁vulgar	-11.5036
▁zapate	-11.5036
▁áspera	-11.5036
▁First	-11.5036
▁acompañamiento	-11.5036
▁alguacil	-11.5036
▁aplica	-11.5036
▁concluye	-11.5036
▁encerramiento	-11.5036
▁entretiene	-11.5036
▁envíe	-11.5036
▁ermitaño	-11.5036
▁furioso	-11.5036
▁governess	-11.5036
▁instruct	-11.5036
▁sostenía	-11.5036
▁swam	-11.5036
▁trembling	-11.5036
▁turbó	-11.5036
▁voluntari	-11.5036
▁Tarfe	-11.5036
▁acute	-11.5036
▁cebolla	-11.5036
▁cencerr	-11.5036
▁cordura	-11.5036
▁derrota	-11.5036
▁entretanto	-11.5036
▁heightened	-11.5036
▁insolencia	-11.5036
▁visión	-11.5036
▁vistió	-11.5036
▁Hill	-11.5036
▁Italia	-11.5036
▁entristec	-11.5036
▁hechura	-11.5036
▁jaspe	-11.5036
▁leyenda	-11.5036
▁puñal	-11.5036
▁vexed	-11.5036
▁aceñas	-11.5036
▁monarca	-11.5036
▁obedeci	-11.5036
▁pidiendo	-11.5036
▁reñir	-11.5036
▁riesgo	-11.5036
▁House	-11.5036
▁comoquiera	-11.5036
▁confused	-11.5036
▁vencida	-11.5036
▁Tajo	-11.5036
▁message	-11.5036
▁serpiente	-11.5036
▁desdén	-11.5036
▁nudo	-11.5036
▁shop	-11.5036
Pride	-11.5036
▁prodig	-11.5036
END	-11.5036
▁balde	-11.5036
▁margen	-11.5036
▁afect	-11.5036
▁podrido	-11.5036
▁sensation	-11.5036
▁raised	-11.5036
víno	-11.5036
amuza	-11.5036
▁encender	-11.5036
▁feridas	-11.5036
▁Miranda	-11.5036
LICE	-11.5036
▁proveído	-11.5036
▁brinca	-11.5036
▁separation	-11.5036
▁offence	-11.5036
▁borrasca	-11.5036
▁insolent	-11.5036
▁persist	-11.5036
▁facult	-11.5036
▁gown	-11.5036
▁proveída	-11.5036
▁circu	-11.5036
▁spring	-11.5036
▁turbe	-11.5036
▁ofrecido	-11.5036
▁llana	-11.5036
▁gallo	-11.5036
▁dwelling	-11.5036
▁manteado	-11.5036
▁saqué	-11.5036
▁tinto	-11.5037
▁estábamos	-11.5037
▁anciano	-11.5037
▁fresco	-11.5037
▁llegué	-11.5037
▁excede	-11.5037
▁tercia	-11.5037
▁gardeners	-11.5037
▁atreva	-11.5037
▁save	-11.5037
▁adornar	-11.5037
▁luces	-11.5037
ímosle	-11.5037
▁mejilla	-11.5037
▁yawn	-11.5037
▁gentlemanlike	-11.5037
ittle	-11.5037
▁encaje	-11.5037
▁plega	-11.5037
▁diciplinantes	-11.5037
▁moj	-11.5037
▁honroso	-11.5037
▁anochecer	-11.5038
▁naciones	-11.5038
▁abode	-11.5038
▁borrica	-11.5038
▁heredero	-11.5038
▁description	-11.5038
▁maravilloso	-11.5038
▁whiting	-11.5038
examine	-11.5038
▁latín	-11.5038
▁lí	-11.5038
▁pidiéndo	-11.5038
▁nata	-11.5039
▁alcu	-11.5039
OK	-11.5039
▁ignorance	-11.5039
▁habréis	-11.5039
▁warmth	-11.5039
▁encomendarse	-11.5039
▁correspondencia	-11.504
▁niega	-11.504
▁rising	-11.504
▁indignation	-11.504
▁apartándose	-11.504
▁eagerness	-11.5041
▁salimos	-11.5041
▁llaga	-11.5041
▁bread	-11.5042
▁asentar	-11.5042
profit	-11.5042
▁Quiero	-11.5042
▁recent	-11.5043
▁insist	-11.5043
▁remata	-11.5043
▁floj	-11.5043
▁esparci	-11.5043
▁tocadores	-11.5044
▁caminaban	-11.5044
▁tropie	-11.5046
jadme	-11.5046
▁maña	-11.5046
▁divino	-11.5046
pavor	-11.5046
▁dry	-11.5047
ándote	-11.5047
▁agradecida	-11.5047
▁Quiso	-11.5048
▁oler	-11.5048
▁cry	-11.5048
▁aguardaba	-11.505
▁preñad	-11.5051
veses	-11.5055
▁sordo	-11.5057
▁fift	-11.506
Hol	-11.5061
▁voltea	-11.5063
▁cita	-11.5076
▁ahecha	-11.5083
▁sencill	-11.5086
suitable	-11.5094
▁encerrada	-11.5114
▁yerro	-11.5116
▁nari	-11.5117
firmó	-11.5156
▁cobra	-11.518
▁enano	-11.5194
▁coge	-11.5202
▁querrá	-11.525
▁angustia	-11.5305
range	-11.5339
donate	-11.5387
garras	-11.5402
▁proprie	-11.5447
tentísimo	-11.5531
sumpt	-11.5606
▁renta	-11.5915
IDE	-11.6008
efore	-11.6062
▁afirm	-11.6135
precia	-11.6232
ditional	-11.6243
▁ofrecimiento	-11.6251
▁hazaña	-11.6255
▁modern	-11.6287
▁impertinent	-11.6326
▁truec	-11.6342
ntándose	-11.6353
Sucedió	-11.6402
Nothing	-11.6402
looking	-11.6404
Dios	-11.6405
must	-11.6405
▁nació	-11.642
rived	-11.6435
▁include	-11.6439
▁increase	-11.6439
▁puzzl	-11.6443
▁aficion	-11.6443
▁murmur	-11.6444
▁offend	-11.6449
▁satisfac	-11.6449
▁uncommon	-11.6452
▁actual	-11.6454
▁incita	-11.6457
endito	-11.6464
▁nerv	-11.6464
uatro	-11.6464
▁XXV	-11.6465
▁discharg	-11.6465
Except	-11.6465
MICO	-11.6465
Pardiez	-11.6465
lbricias	-11.6465
▁Capitán	-11.6465
▁Christmas	-11.6465
▁Cámara	-11.6465
▁Escritura	-11.6465
▁Everything	-11.6465
▁FUL	-11.6465
▁Felixmarte	-11.6465
▁Guadiana	-11.6465
▁Hircania	-11.6465
▁Levánt	-11.6465
▁Lodge	-11.6465
▁Marsilio	-11.6465
▁Morato	-11.6465
▁Procur	-11.6465
▁Segovia	-11.6465
▁Torralba	-11.6465
▁Valencia	-11.6465
▁XVII	-11.6465
▁acémila	-11.6465
▁adelantó	-11.6465
▁agitation	-11.6465
▁albedrío	-11.6465
▁alivia	-11.6465
▁announce	-11.6465
▁antojadiza	-11.6465
▁aplauso	-11.6465
▁apologize	-11.6465
▁approbation	-11.6465
▁aprieto	-11.6465
▁asendereado	-11.6465
▁asturiana	-11.6465
▁beneplácito	-11.6465
▁bizarría	-11.6465
▁boticario	-11.6465
▁censure	-11.6465
▁centinela	-11.6465
▁colérico	-11.6465
▁compasivo	-11.6465
▁condescension	-11.6465
▁conociera	-11.6465
▁corazones	-11.6465
▁créame	-11.6465
▁cuadrilla	-11.6465
▁delincuente	-11.6465
▁demostraciones	-11.6465
▁dijésemos	-11.6465
▁disadvantage	-11.6465
▁disapprobation	-11.6465
▁disignio	-11.6465
▁distinction	-11.6465
▁durmió	-11.6465
▁embarrassed	-11.6465
▁embelec	-11.6465
▁engendró	-11.6465
▁exercise	-11.6465
▁experience	-11.6465
▁falsehood	-11.6465
▁families	-11.6465
▁gallery	-11.6465
▁galope	-11.6465
▁guijarro	-11.6465
▁guinea	-11.6465
▁guirnalda	-11.6465
▁hembra	-11.6465
▁holanda	-11.6465
▁horror	-11.6465
▁huérfanos	-11.6465
▁imprimiere	-11.6465
▁improbable	-11.6465
▁inaudita	-11.6465
▁inclemencia	-11.6465
▁intellect	-11.6465
▁invidioso	-11.6465
▁jubón	-11.6465
▁juridición	-11.6465
▁knee	-11.6465
▁librillo	-11.6465
▁menudencias	-11.6465
▁mortification	-11.6465
▁negociante	-11.6465
▁parecieron	-11.6465
▁pensáis	-11.6465
▁positive	-11.6465
▁pretension	-11.6465
▁prevenciones	-11.6465
▁puppy	-11.6465
▁purgatorio	-11.6465
▁pursuit	-11.6465
▁qualities	-11.6465
▁quality	-11.6465
▁quiebra	-11.6465
▁recogida	-11.6465
▁recogimiento	-11.6465
▁recuest	-11.6465
▁regular	-11.6465
▁relinch	-11.6465
▁renewal	-11.6465
▁research	-11.6465
▁resemblance	-11.6465
▁restrictions	-11.6465
▁rosario	-11.6465
▁satisfactory	-11.6465
▁scream	-11.6465
▁shriek	-11.6465
▁similar	-11.6465
▁strength	-11.6465
▁stretch	-11.6465
▁sucedieron	-11.6465
▁suspensión	-11.6465
▁ternera	-11.6465
▁titerero	-11.6465
▁uneasiness	-11.6465
▁unfolded	-11.6465
▁unreasonable	-11.6465
▁venturosa	-11.6465
▁vuelo	-11.6465
▁weight	-11.6465
▁wound	-11.6465
▁única	-11.6465
▁ARGAMASILL	-11.6465
▁Homero	-11.6465
▁alluded	-11.6465
▁apellido	-11.6465
▁apresur	-11.6465
▁aurora	-11.6465
▁cocinero	-11.6465
▁contienda	-11.6465
▁enmendar	-11.6465
▁escudriñ	-11.6465
▁exempt	-11.6465
▁exhibit	-11.6465
▁felicísima	-11.6465
▁flutter	-11.6465
▁gloom	-11.6465
▁jealous	-11.6465
▁lagunas	-11.6465
▁neck	-11.6465
▁patroness	-11.6465
▁sobremanera	-11.6465
▁trofeo	-11.6465
yudó	-11.6465
▁Parecióle	-11.6465
▁arrastra	-11.6465
▁birth	-11.6465
▁campea	-11.6465
▁crianza	-11.6465
▁cuervo	-11.6465
▁descargar	-11.6465
▁destreza	-11.6465
▁lléve	-11.6465
▁recoger	-11.6465
▁remedie	-11.6465
▁reventar	-11.6465
▁sixteen	-11.6465
▁sobrenombre	-11.6465
▁street	-11.6465
maneció	-11.6465
▁Hiciéronl	-11.6465
▁LXI	-11.6465
▁abrevi	-11.6465
▁aspect	-11.6465
▁blow	-11.6465
▁cortesana	-11.6465
▁exagera	-11.6465
▁justify	-11.6465
▁traducir	-11.6465
▁cayese	-11.6465
▁discern	-11.6465
▁golden	-11.6465
▁invenciones	-11.6465
▁jabon	-11.6465
▁limosna	-11.6465
▁permite	-11.6465
▁prosiga	-11.6465
▁removal	-11.6465
▁tranquil	-11.6465
▁átomo	-11.6465
▁aprobación	-11.6465
▁dependence	-11.6465
▁precisa	-11.6465
▁causó	-11.6465
▁cifra	-11.6465
▁despojar	-11.6465
▁fitted	-11.6465
▁toledano	-11.6465
▁unaffected	-11.6465
▁Febo	-11.6465
▁León	-11.6465
▁encomiend	-11.6465
▁prender	-11.6465
▁printed	-11.6465
▁rubios	-11.6465
▁bonísima	-11.6465
▁desmán	-11.6465
▁engross	-11.6465
▁sport	-11.6465
▁Osuna	-11.6465
▁desaforada	-11.6465
▁intending	-11.6465
▁vientre	-11.6465
▁pasajero	-11.6465
▁Till	-11.6465
▁busily	-11.6465
▁colcha	-11.6465
▁estéril	-11.6465
▁behaved	-11.6465
▁pressing	-11.6465
▁luenga	-11.6465
▁eligible	-11.6465
▁estuve	-11.6465
▁pasmado	-11.6465
▁erudi	-11.6465
▁dicta	-11.6465
▁pereza	-11.6465
EBO	-11.6465
▁actions	-11.6465
▁Crist	-11.6465
▁peace	-11.6465
▁quinto	-11.6465
▁deshecho	-11.6465
▁visible	-11.6465
▁ambici	-11.6465
▁desposado	-11.6465
▁empuñ	-11.6465
▁indicat	-11.6465
▁novedad	-11.6465
▁remate	-11.6465
▁traspasa	-11.6465
▁hagáis	-11.6465
breeding	-11.6465
▁betray	-11.6465
▁cruces	-11.6465
▁quimera	-11.6465
▁temió	-11.6465
▁charit	-11.6465
▁civilities	-11.6465
tierre	-11.6465
▁recita	-11.6465
▁eminent	-11.6465
?_”	-11.6465
▁inquiet	-11.6465
▁misterio	-11.6465
▁maintain	-11.6465
▁entregó	-11.6465
árades	-11.6465
▁ralea	-11.6465
gigant	-11.6465
▁mirándole	-11.6466
▁heredera	-11.6466
▁gross	-11.6466
▁maligno	-11.6466
▁shape	-11.6466
sperate	-11.6466
▁parents	-11.6466
▁forgot	-11.6466
▁ornament	-11.6466
▁See	-11.6466
▁Nuev	-11.6466
▁líquid	-11.6466
▁calzones	-11.6466
▁alerta	-11.6466
▁imposibilitado	-11.6466
▁podremos	-11.6467
▁molimiento	-11.6467
▁mosca	-11.6467
fined	-11.6467
▁decille	-11.6467
▁lift	-11.6467
▁vehemen	-11.6467
▁caiga	-11.6467
▁search	-11.6467
▁Sacó	-11.6467
▁madura	-11.6467
▁united	-11.6467
▁acosado	-11.6468
▁edge	-11.6468
▁sufrido	-11.6469
▁nurs	-11.6469
▁menoscaba	-11.6469
▁hyp	-11.6469
▁creció	-11.6469
▁proces	-11.6469
▁forzada	-11.6469
▁gruñ	-11.647
▁forzado	-11.647
▁arenga	-11.6471
▁ánde	-11.6471
▁Term	-11.6471
▁gane	-11.6472
▁veneno	-11.6473
▁sujeta	-11.6473
▁net	-11.6476
▁ardía	-11.6477
▁muslo	-11.6477
▁bastó	-11.6488
▁doubl	-11.649
Everybody	-11.6491
imposed	-11.6494
abrid	-11.6494
▁granjead	-11.6495
▁cóm	-11.6496
▁detuviese	-11.6499
▁despedí	-11.65
▁Aquell	-11.6505
▁Vani	-11.6512
Consider	-11.6534
▁temier	-11.6585
▁doler	-11.6619
ember	-11.6619
rcial	-11.6681
tuvieron	-11.6714
▁estuvi	-11.6721
siguiendo	-11.6753
denial	-11.6807
▁mot	-11.6821
taining	-11.6991
ained	-11.7081
▁dwel	-11.7109
▁abomin	-11.7202
bién	-11.7235
▁involv	-11.7327
▁conscious	-11.7372
egún	-11.7385
▁prosigu	-11.7758
uviesen	-11.7892
▁condition	-11.7933
federa	-11.7937
▁encuentr	-11.7987
▁ahorr	-11.8008
ification	-11.8018
scended	-11.802
dición	-11.8068
cortés	-11.8069
From	-11.807
view	-11.8071
either	-11.8071
because	-11.8071
Alice	-11.8071
with	-11.8071
two	-11.8072
REA	-11.8082
pusiese	-11.8086
▁conclude	-11.8106
▁invite	-11.8106
▁buey	-11.8118
▁thin	-11.812
▁opportunit	-11.8122
▁demasiada	-11.8127
▁habré	-11.8127
tribution	-11.813
titude	-11.813
▁resplandec	-11.8131
cordia	-11.8131
▁DISTRIBUT	-11.8131
▁acobard	-11.8131
▁encubrí	-11.8131
▁evidence	-11.8131
▁rabbit	-11.8131
▁shrink	-11.8131
ATION	-11.8131
DEM	-11.8131
Deteneos	-11.8131
Ninguno	-11.8131
OSO	-11.8131
Right	-11.8131
impropriety	-11.8131
miniature	-11.8131
▁Agramante	-11.8131
▁Belianís	-11.8131
▁Charles	-11.8131
▁Clavijo	-11.8131
▁Díjome	-11.8131
▁England	-11.8131
▁Flandes	-11.8131
▁Galaor	-11.8131
▁Hércules	-11.8131
▁Hízose	-11.8131
▁Ingalaterra	-11.8131
▁Jerónimo	-11.8131
▁Jorge	-11.8131
▁Julio	-11.8131
▁Lizard	-11.8131
▁Lobster	-11.8131
▁Magalona	-11.8131
▁Orlando	-11.8131
▁Ovidio	-11.8131
▁Portugal	-11.8131
▁Preguntéle	-11.8131
▁Prejudice	-11.8131
▁Radamanto	-11.8131
▁Redistributi	-11.8131
▁Ricardo	-11.8131
▁Royalty	-11.8131
▁START	-11.8131
▁Swift	-11.8131
▁Uchalí	-11.8131
▁Vandalia	-11.8131
▁Verdaderamente	-11.8131
▁abhorrence	-11.8131
▁abilities	-11.8131
▁acknowledgment	-11.8131
▁adulación	-11.8131
▁adventure	-11.8131
▁alcurnia	-11.8131
▁andurriales	-11.8131
▁ansimismo	-11.8131
▁apretó	-11.8131
▁atrevida	-11.8131
▁bandolero	-11.8131
▁banquete	-11.8131
▁beauties	-11.8131
▁beneath	-11.8131
▁bigotes	-11.8131
▁bizarra	-11.8131
▁blandura	-11.8131
▁callejuela	-11.8131
▁cartapacio	-11.8131
▁cautiverio	-11.8131
▁characteristic	-11.8131
▁clérigo	-11.8131
▁codicia	-11.8131
▁communicate	-11.8131
▁comunique	-11.8131
▁conceited	-11.8131
▁consentimiento	-11.8131
▁creyeron	-11.8131
▁cristiandad	-11.8131
▁culebras	-11.8131
▁deference	-11.8131
▁difícil	-11.8131
▁dignidad	-11.8131
▁disguise	-11.8131
▁displeasure	-11.8131
▁dispuest	-11.8131
▁disputa	-11.8131
▁dispute	-11.8131
▁doctrina	-11.8131
▁embist	-11.8131
▁employee	-11.8131
▁encamisados	-11.8131
▁encarecimiento	-11.8131
▁encouraging	-11.8131
▁encubierto	-11.8131
▁esclavo	-11.8131
▁escrebir	-11.8131
▁establishment	-11.8131
▁estandarte	-11.8131
▁exclamation	-11.8131
▁extraordinaria	-11.8131
▁extravagant	-11.8131
▁fantástico	-11.8131
▁fight	-11.8131
▁flamingo	-11.8131
▁forbearance	-11.8131
▁gabán	-11.8131
▁gallegos	-11.8131
▁genius	-11.8131
▁graduado	-11.8131
▁group	-11.8131
▁guilt	-11.8131
▁heavy	-11.8131
▁hinojos	-11.8131
▁independence	-11.8131
▁intercourse	-11.8131
▁juzgo	-11.8131
▁legítimo	-11.8131
▁magnificencia	-11.8131
▁malandrín	-11.8131
▁maldiciente	-11.8131
▁malferido	-11.8131
▁manteamiento	-11.8131
▁matrimony	-11.8131
▁mayorazgo	-11.8131
▁melancólic	-11.8131
▁melindre	-11.8131
▁melindroso	-11.8131
▁merecimiento	-11.8131
▁mocedad	-11.8131
▁monstruo	-11.8131
▁morrión	-11.8131
▁mortifie	-11.8131
▁mortifying	-11.8131
▁muchedumbre	-11.8131
▁neat	-11.8131
▁ochenta	-11.8131
▁orientales	-11.8131
▁originat	-11.8131
▁pajarillos	-11.8131
▁perverseness	-11.8131
▁privilege	-11.8131
▁pífaro	-11.8131
▁púlpito	-11.8131
▁quinientos	-11.8131
▁recatada	-11.8131
▁refreshment	-11.8131
▁refriega	-11.8131
▁renewed	-11.8131
▁renovó	-11.8131
▁replique	-11.8131
▁repostería	-11.8131
▁reproof	-11.8131
▁reservad	-11.8131
▁retórica	-11.8131
▁revuelta	-11.8131
▁rindiese	-11.8131
▁riquísima	-11.8131
▁sabiduría	-11.8131
▁sabroso	-11.8131
▁saetas	-11.8131
▁satisfecha	-11.8131
▁savage	-11.8131
▁sepulcro	-11.8131
▁sneezing	-11.8131
▁softened	-11.8131
▁solícito	-11.8131
▁sucediere	-11.8131
▁suplicándole	-11.8131
▁suplir	-11.8131
▁survive	-11.8131
▁swim	-11.8131
▁symptom	-11.8131
▁sátira	-11.8131
▁transformada	-11.8131
▁travelling	-11.8131
▁twelvemonth	-11.8131
▁uncivil	-11.8131
▁unnatural	-11.8131
▁vejigas	-11.8131
▁ímpetu	-11.8131
Defect	-11.8131
stinct	-11.8131
▁Agradeci	-11.8131
▁García	-11.8131
▁Interna	-11.8131
▁Quizá	-11.8131
▁accent	-11.8131
▁acierto	-11.8131
▁affront	-11.8131
▁apaleado	-11.8131
▁break	-11.8131
▁ciega	-11.8131
▁cierra	-11.8131
▁cohecho	-11.8131
▁creyera	-11.8131
▁embeb	-11.8131
▁engaging	-11.8131
▁follón	-11.8131
▁gremio	-11.8131
▁hesitate	-11.8131
▁hospital	-11.8131
▁jineta	-11.8131
▁overlook	-11.8131
▁pedrada	-11.8131
▁pepper	-11.8131
▁prevenir	-11.8131
▁propria	-11.8131
▁rogué	-11.8131
▁studie	-11.8131
▁suspense	-11.8131
▁trifle	-11.8131
▁vanished	-11.8131
▁Cerró	-11.8131
▁Hearts	-11.8131
▁Tirante	-11.8131
▁XXVII	-11.8131
▁adornan	-11.8131
▁black	-11.8131
▁brinco	-11.8131
▁dijiste	-11.8131
▁emotion	-11.8131
▁fealdad	-11.8131
▁golfo	-11.8131
▁malicioso	-11.8131
▁mutual	-11.8131
▁plegarias	-11.8131
▁regulat	-11.8131
▁rescatado	-11.8131
▁sauce	-11.8131
▁sombrero	-11.8131
▁sufrimiento	-11.8131
▁wilful	-11.8131
▁antojos	-11.8131
▁disparatada	-11.8131
▁espesas	-11.8131
▁fifteen	-11.8131
▁franco	-11.8131
▁militia	-11.8131
Plain	-11.8131
▁acorrer	-11.8131
▁escuadra	-11.8131
▁espías	-11.8131
▁procession	-11.8131
▁risueñ	-11.8131
▁sospiro	-11.8131
▁village	-11.8131
▁allusion	-11.8131
▁deshizo	-11.8131
▁tarts	-11.8131
▁tengáis	-11.8131
----”	-11.8131
dubita	-11.8131
nuncio	-11.8131
▁plead	-11.8131
▁ropilla	-11.8131
caeció	-11.8131
▁agobi	-11.8131
▁caletre	-11.8131
▁rector	-11.8131
▁barato	-11.8131
▁electronically	-11.8131
▁habedes	-11.8131
▁weather	-11.8131
▁continually	-11.8131
▁modesty	-11.8131
▁Querría	-11.8131
▁suppressed	-11.8131
▁flema	-11.8131
▁tribu	-11.8131
comparative	-11.8131
▁algodón	-11.8131
▁banish	-11.8131
▁hablé	-11.8131
▁ardiendo	-11.8131
▁ingratitud	-11.8131
▁condemn	-11.8131
▁diestro	-11.8131
▁Heaven	-11.8131
▁INC	-11.8131
▁fingiendo	-11.8131
▁accuse	-11.8131
▁June	-11.8132
▁enumerati	-11.8132
▁patente	-11.8132
▁sharing	-11.8132
▁Apart	-11.8132
▁kid	-11.8132
▁Madre	-11.8132
▁levante	-11.8132
▁trova	-11.8132
▁hacéis	-11.8132
▁plate	-11.8132
▁tercio	-11.8132
▁perdices	-11.8132
▁malparado	-11.8132
▁Lakes	-11.8132
▁wink	-11.8132
TRA	-11.8132
▁bank	-11.8132
▁recta	-11.8132
▁recelo	-11.8132
▁arrimo	-11.8132
▁corner	-11.8132
humanity	-11.8132
▁entremeto	-11.8132
▁acabándo	-11.8132
▁chair	-11.8132
▁aparato	-11.8132
▁cofre	-11.8132
▁warn	-11.8132
▁volume	-11.8132
▁caldera	-11.8132
▁usurpa	-11.8132
▁ahoga	-11.8132
▁deleite	-11.8133
▁tragos	-11.8133
▁burn	-11.8133
▁estatua	-11.8133
renombre	-11.8133
▁gasto	-11.8133
ttling	-11.8133
▁atiende	-11.8133
▁Tomól	-11.8133
▁cualesquier	-11.8133
▁inspir	-11.8133
▁ronca	-11.8134
ccordingly	-11.8134
▁maguer	-11.8135
Cuá	-11.8135
mbling	-11.8135
▁reviv	-11.8136
▁póng	-11.8136
rabá	-11.8136
▁prize	-11.8136
▁reput	-11.8136
ábala	-11.8138
▁tiró	-11.814
Cuánt	-11.814
▁adorne	-11.8144
agger	-11.8148
▁posee	-11.8148
cogía	-11.8149
▁mixt	-11.8151
▁Junt	-11.8152
Aquel	-11.8159
▁presenc	-11.8161
▁identif	-11.8163
▁contrive	-11.8165
guarded	-11.8167
▁pegad	-11.8183
mult	-11.8198
guijón	-11.8201
▁modifi	-11.821
ujer	-11.8302
oots	-11.832
elled	-11.8348
▁déjenm	-11.8484
▁cautious	-11.8502
reasonably	-11.8574
áronl	-11.8911
lumbres	-11.9167
▁entit	-11.9234
corrió	-11.9382
propriet	-11.9482
judged	-11.976
▁persuasi	-11.9911
▁generos	-11.9956
▁deshace	-12.0043
También	-12.007
why	-12.0071
cuál	-12.0071
figura	-12.0071
Señor	-12.0071
Wickham	-12.0071
▁broke	-12.0086
▁acomodándo	-12.0095
▁disappoint	-12.0108
▁Nuestr	-12.0112
▁extreme	-12.0119
▁exact	-12.0119
▁disclaim	-12.0123
ship	-12.0128
etween	-12.013
tupid	-12.013
▁drop	-12.0131
▁Aristóteles	-12.0131
▁lámpara	-12.0131
▁treacle	-12.0131
Alborot	-12.0131
Beautiful	-12.0131
Católica	-12.0131
Desdichad	-12.0131
PRESS	-12.0131
QUE	-12.0131
Santiago	-12.0131
WILL	-12.0131
complacency	-12.0131
intelligible	-12.0131
prehensible	-12.0131
qualified	-12.0131
splendid	-12.0131
▁Addison	-12.0131
▁Adelante	-12.0131
▁Adventures	-12.0131
▁Advertid	-12.0131
▁Advierte	-12.0131
▁Alemania	-12.0131
▁Arabia	-12.0131
▁Añadió	-12.0131
▁Bretaña	-12.0131
▁Carpio	-12.0131
▁Dígote	-12.0131
▁Estremadura	-12.0131
▁French	-12.0131
▁Galatea	-12.0131
▁Ginebra	-12.0131
▁Ginesillo	-12.0131
▁Gonzalo	-12.0131
▁Júpiter	-12.0131
▁Lewis	-12.0131
▁Madásima	-12.0131
▁Mahoma	-12.0131
▁Málaga	-12.0131
▁November	-12.0131
▁Perlerin	-12.0131
▁Quadrille	-12.0131
▁Quintañona	-12.0131
▁Siempre	-12.0131
▁Siguió	-12.0131
▁Suplic	-12.0131
▁Tabla	-12.0131
▁Valdovinos	-12.0131
▁Wonderland	-12.0131
▁abundos	-12.0131
▁accusation	-12.0131
▁acuerde	-12.0131
▁ademanes	-12.0131
▁adondequiera	-12.0131
▁alacrity	-12.0131
▁alcahuete	-12.0131
▁alevosía	-12.0131
▁aljófar	-12.0131
▁apasionado	-12.0131
▁apetito	-12.0131
▁apuesta	-12.0131
▁apócrifo	-12.0131
▁arrebat	-12.0131
▁arrepentimiento	-12.0131
▁arrimó	-12.0131
▁arrogancia	-12.0131
▁ascuras	-12.0131
▁atambores	-12.0131
▁avemarías	-12.0131
▁balcón	-12.0131
▁bottom	-12.0131
▁brebaje	-12.0131
▁cariño	-12.0131
▁ceremony	-12.0131
▁changing	-12.0131
▁cheeks	-12.0131
▁comencé	-12.0131
▁complaisance	-12.0131
▁concavidad	-12.0131
▁conscience	-12.0131
▁consiguiente	-12.0131
▁contradecir	-12.0131
▁coronista	-12.0131
▁crown	-12.0131
▁desagradecida	-12.0131
▁descaminad	-12.0131
▁descompuesto	-12.0131
▁desembarazado	-12.0131
▁desenfadad	-12.0131
▁deshaciendo	-12.0131
▁destruye	-12.0131
▁desvariado	-12.0131
▁diligente	-12.0131
▁discretion	-12.0131
▁dulcísima	-12.0131
▁economy	-12.0131
▁embajador	-12.0131
▁emperatrices	-12.0131
▁encrucijadas	-12.0131
▁encubierta	-12.0131
▁endiablada	-12.0131
▁enferma	-12.0131
▁enhoramala	-12.0131
▁enmienda	-12.0131
▁envidioso	-12.0131
▁equivalente	-12.0131
▁escrutinio	-12.0131
▁examining	-12.0131
▁example	-12.0131
▁felicidad	-12.0131
▁filosofía	-12.0131
▁fortifica	-12.0131
▁forzosamente	-12.0131
▁furnish	-12.0131
▁fuésemos	-12.0131
▁gansos	-12.0131
▁griega	-12.0131
▁grievous	-12.0131
▁hidalga	-12.0131
▁hookah	-12.0131
▁humility	-12.0131
▁indigno	-12.0131
▁infantería	-12.0131
▁inferir	-12.0131
▁infundi	-12.0131
▁intelligent	-12.0131
▁intencionada	-12.0131
▁intérprete	-12.0131
▁inumerable	-12.0131
▁justified	-12.0131
▁kitchen	-12.0131
▁knock	-12.0131
▁likelihood	-12.0131
▁liviana	-12.0131
▁llaneza	-12.0131
▁lícita	-12.0131
▁magnífico	-12.0131
▁majadero	-12.0131
▁majestad	-12.0131
▁malaventurado	-12.0131
▁maldita	-12.0131
▁mansedumbre	-12.0131
▁melindrosa	-12.0131
▁mercancía	-12.0131
▁navío	-12.0131
▁negociar	-12.0131
▁nueces	-12.0131
▁obediencia	-12.0131
▁obediente	-12.0131
▁obispo	-12.0131
▁ofreciere	-12.0131
▁ofrecieron	-12.0131
▁ofreciese	-12.0131
▁overpower	-12.0131
▁overthrow	-12.0131
▁pareciere	-12.0131
▁pellizcos	-12.0131
▁perjudicial	-12.0131
▁pertrechos	-12.0131
▁pianoforte	-12.0131
▁plebey	-12.0131
▁ponérsel	-12.0131
▁posaderas	-12.0131
▁practice	-12.0131
▁premática	-12.0131
▁presunción	-12.0131
▁privilegio	-12.0131
▁profundidad	-12.0131
▁pronunci	-12.0131
▁provoking	-12.0131
▁prístin	-12.0131
▁quitárselo	-12.0131
▁raíces	-12.0131
▁recordación	-12.0131
▁recámara	-12.0131
▁rencuentro	-12.0131
▁rendida	-12.0131
▁restraint	-12.0131
▁ridiculous	-12.0131
▁riquísimo	-12.0131
▁réplica	-12.0131
▁rétulo	-12.0131
▁sacristán	-12.0131
▁sangrienta	-12.0131
▁santiguada	-12.0131
▁santiguar	-12.0131
▁scold	-12.0131
▁semblante	-12.0131
▁shrill	-12.0131
▁significant	-12.0131
▁sinrazones	-12.0131
▁sneeze	-12.0131
▁socorriese	-12.0131
▁suntuoso	-12.0131
▁suplicó	-12.0131
▁supposition	-12.0131
▁tapices	-12.0131
▁tinajas	-12.0131
▁tranquillity	-12.0131
▁transparente	-12.0131
▁treasure	-12.0131
▁tremble	-12.0131
▁unconcern	-12.0131
▁unequal	-12.0131
▁universo	-12.0131
▁vestibule	-12.0131
▁visiones	-12.0131
▁welfare	-12.0131
▁íbamos	-12.0131
▁útil	-12.0131
▁Cupido	-12.0131
▁Duerme	-12.0131
▁Gaspar	-12.0131
▁Michael	-12.0131
▁Quijano	-12.0131
▁abriese	-12.0131
▁abrupt	-12.0131
▁aguamanil	-12.0131
▁alternativ	-12.0131
▁bajeza	-12.0131
▁competir	-12.0131
▁consejero	-12.0131
▁contribute	-12.0131
▁deficient	-12.0131
▁deshechas	-12.0131
▁diminu	-12.0131
▁disturb	-12.0131
▁eficac	-12.0131
▁emprenta	-12.0131
▁energy	-12.0131
▁enmudec	-12.0131
▁enramada	-12.0131
▁erratas	-12.0131
▁hacanea	-12.0131
▁hága	-12.0131
▁inquiring	-12.0131
▁insensibility	-12.0131
▁interpret	-12.0131
▁intolerable	-12.0131
▁mercenary	-12.0131
▁mutter	-12.0131
▁obstina	-12.0131
▁pañuelo	-12.0131
▁propuesto	-12.0131
▁pupilos	-12.0131
▁referir	-12.0131
▁ridicule	-12.0131
▁screen	-12.0131
▁trifling	-12.0131
▁vejez	-12.0131
▁volvérsel	-12.0131
▁complacer	-12.0131
▁dígol	-12.0131
▁kiss	-12.0131
▁maliciosa	-12.0131
▁mortaja	-12.0131
▁parentela	-12.0131
▁pertenec	-12.0131
▁sky	-12.0131
▁stick	-12.0131
▁suspirar	-12.0131
▁vicario	-12.0131
▁Jones	-12.0131
▁barriga	-12.0131
▁coluna	-12.0131
▁desafiar	-12.0131
▁estupend	-12.0131
▁fulano	-12.0131
▁impiden	-12.0131
▁sortija	-12.0131
▁Orden	-12.0131
▁humilla	-12.0131
▁Entraron	-12.0131
▁adieu	-12.0131
▁alternate	-12.0131
▁buitre	-12.0131
▁contradict	-12.0131
▁desvanec	-12.0131
▁granjería	-12.0131
▁podenco	-12.0131
▁rebaño	-12.0131
▁Llana	-12.0131
▁alameda	-12.0131
▁amends	-12.0131
▁correspondence	-12.0131
▁plomo	-12.0131
▁providencia	-12.0131
▁Apeóse	-12.0131
▁Pobre	-12.0131
▁bañó	-12.0131
▁caution	-12.0131
▁freedom	-12.0131
▁hiciste	-12.0131
▁royal	-12.0131
▁steward	-12.0131
▁adornado	-12.0131
▁border	-12.0131
▁build	-12.0131
▁joke	-12.0131
gilio	-12.0131
▁baraja	-12.0131
▁ceptro	-12.0131
▁courtesy	-12.0131
▁entremeter	-12.0131
▁suficiente	-12.0131
▁toscano	-12.0131
▁reposado	-12.0131
▁elogio	-12.0131
▁tejida	-12.0131
▁agazap	-12.0131
▁pintó	-12.0131
▁bocací	-12.0131
▁impulse	-12.0131
▁llám	-12.0131
▁perdono	-12.0131
▁tormenta	-12.0131
▁apparent	-12.0131
▁amanceba	-12.0131
▁article	-12.0131
▁romero	-12.0131
▁coroza	-12.0131
▁oficial	-12.0131
▁despair	-12.0131
▁Campo	-12.0131
▁varilla	-12.0131
▁Puert	-12.0131
▁ganó	-12.0131
éngan	-12.0131
▁Pastor	-12.0131
▁desafiado	-12.0131
▁granjear	-12.0131
▁horri	-12.0131
▁curiosa	-12.0132
ómito	-12.0132
▁burst	-12.0132
▁nibbl	-12.0132
▁parasismo	-12.0132
▁subsist	-12.0132
espére	-12.0132
▁trasquil	-12.0132
▁espante	-12.0132
▁impedido	-12.0132
▁moler	-12.0132
▁malandante	-12.0132
▁caudal	-12.0132
▁majada	-12.0132
▁cardenal	-12.0132
▁piadosa	-12.0132
essential	-12.0132
▁score	-12.0132
▁reproch	-12.0132
▁rindier	-12.0132
▁stirr	-12.0132
▁Fili	-12.0132
▁domingo	-12.0132
▁desvel	-12.0132
▁shade	-12.0132
▁abriéndol	-12.0132
▁promote	-12.0132
▁Pusiéronl	-12.0133
▁tigre	-12.0133
▁oculta	-12.0133
▁propon	-12.0133
▁traiga	-12.0134
▁brumad	-12.0134
▁Prosigu	-12.0134
▁rabel	-12.0134
▁tañe	-12.0134
▁dármel	-12.0135
cynic	-12.0135
▁requeri	-12.0135
ervice	-12.0135
▁solitar	-12.0136
Vuestr	-12.0137
▁Younge	-12.0137
titled	-12.0137
▁substan	-12.0138
▁hesitati	-12.014
▁corpora	-12.0141
hunting	-12.0146
peak	-12.0147
▁carecier	-12.0148
ezuela	-12.0148
Cruel	-12.015
▁convirti	-12.0153
▁siniestr	-12.0156
▁tibi	-12.0158
NCE	-12.0165
▁bailar	-12.0201
▁violenc	-12.0239
bilitado	-12.0309
ipto	-12.0402
Quiere	-12.0442
mbrad	-12.1026
consciously	-12.1144
runk	-12.1305
▁asegura	-12.1418
ngustiada	-12.2081
▁observ	-12.2149
▁inconvenient	-12.2363
▁maravedí	-12.2417
nything	-12.244
▁dormí	-12.2443
stitute	-12.2481
▁aguij	-12.2523
larines	-12.2545
▁gobernado	-12.2567
generous	-12.2569
Quien	-12.2569
connected	-12.2569
protected	-12.2569
cuánto	-12.257
importance	-12.257
night	-12.2571
After	-12.2571
perhaps	-12.2571
▁familia	-12.26
▁pareciéndo	-12.2601
▁convince	-12.2606
▁levantándo	-12.2611
▁razona	-12.2629
ngenioso	-12.2631
▁már	-12.2631
'	-12.2631
▁DISC	-12.2631
warrant	-12.2631
▁borceguí	-12.2631
▁producti	-12.2631
▁prohibit	-12.2631
▁arroyuelo	-12.2631
▁auténtic	-12.2631
▁deshonestidad	-12.2631
▁guárd	-12.2631
▁hormiga	-12.2631
▁impenetrabl	-12.2631
▁judiciari	-12.2631
▁preservati	-12.2631
▁profetizad	-12.2631
OSS	-12.2631
Pecador	-12.2631
Pensáis	-12.2631
Prometió	-12.2631
Protested	-12.2631
accurate	-12.2631
bsorto	-12.2631
cendientes	-12.2631
century	-12.2631
clusión	-12.2631
ficiency	-12.2631
glancing	-12.2631
pothecary	-12.2631
rchbishop	-12.2631
reluctan	-12.2631
sagradecimiento	-12.2631
tífice	-12.2631
tírate	-12.2631
árabes	-12.2631
▁APROBACI	-12.2631
▁Abrazól	-12.2631
▁Advierta	-12.2631
▁Almodóvar	-12.2631
▁Arcadia	-12.2631
▁August	-12.2631
▁Beltenebros	-12.2631
▁Captain	-12.2631
▁Cascajo	-12.2631
▁Clapham	-12.2631
▁Despert	-12.2631
▁Elisabat	-12.2631
▁Emperador	-12.2631
[	-13.1037
Q	-13.1038
“	-13.1039
q	-13.104
